{
    "vocab": {
        "<UNK>": 0,
        "<PAD>": 1,
        "<SPACE>": 2,
        "m": 3,
        "o": 4,
        "i": 5,
        "-": 6,
        "ê": 7,
        "e": 8,
        ",": 9,
        " ": 10,
        "j": 11,
        "'": 12,
        "a": 13,
        "d": 14,
        "û": 15,
        "f": 16,
        "r": 17,
        "c": 18,
        "p": 19,
        "u": 20,
        "v": 21,
        "s": 22,
        "q": 23,
        "à": 24,
        "l": 25,
        "n": 26,
        ".": 27,
        "t": 28,
        "ç": 29,
        "é": 30,
        ":": 31,
        ")": 32,
        "h": 33,
        "!": 34,
        "7": 35,
        "0": 36,
        "g": 37,
        "x": 38,
        "è": 39,
        "b": 40,
        "\n": 41,
        "6": 42,
        "?": 43,
        "1": 44,
        "2": 45,
        "w": 46,
        "(": 47,
        "y": 48,
        "3": 49,
        "k": 50,
        "z": 51,
        "4": 52,
        "ô": 53,
        "\"": 54,
        "î": 55,
        "5": 56,
        ";": 57,
        "â": 58,
        "ù": 59,
        "ï": 60,
        "8": 61,
        "9": 62,
        "œ": 63,
        "ë": 64,
        "\t": 65,
        "ö": 66,
        "ü": 67,
        "æ": 68,
        "ä": 69,
        " ": 70,
        " ": 71,
        "ÿ": 72,
        "　": 73,
        "es": 74,
        "en": 75,
        "on": 76,
        "ai": 77,
        "qu": 78,
        "ou": 79,
        "le": 80,
        "de": 81,
        "re": 82,
        "an": 83,
        "pa": 84,
        "er": 85,
        "ent": 86,
        "ti": 87,
        "que": 88,
        "is": 89,
        "un": 90,
        "la": 91,
        "est": 92,
        "au": 93,
        "et": 94,
        "te": 95,
        "in": 96,
        "les": 97,
        "ce": 98,
        "il": 99,
        "ais": 100,
        "pas": 101,
        "me": 102,
        "ur": 103,
        "pr": 104,
        "our": 105,
        "se": 106,
        "ment": 107,
        "ch": 108,
        "oi": 109,
        "co": 110,
        "si": 111,
        "tr": 112,
        "je": 113,
        "des": 114,
        "ne": 115,
        "or": 116,
        "par": 117,
        "ait": 118,
        "us": 119,
        "al": 120,
        "eu": 121,
        "av": 122,
        "pour": 123,
        "ar": 124,
        "it": 125,
        "tion": 126,
        "pl": 127,
        "tu": 128,
        "ont": 129,
        "ant": 130,
        "dé": 131,
        "ans": 132,
        "du": 133,
        "une": 134,
        "com": 135,
        "qui": 136,
        "mais": 137,
        "li": 138,
        "con": 139,
        "di": 140,
        "tou": 141,
        "ça": 142,
        "as": 143,
        "ri": 144,
        "po": 145,
        "ré": 146,
        "ci": 147,
        "sur": 148,
        "su": 149,
        "ra": 150,
        "dans": 151,
        "tre": 152,
        "ét": 153,
        "plus": 154,
        "lle": 155,
        "pro": 156,
        "ma": 157,
        "vi": 158,
        "aire": 159,
        "peu": 160,
        "mo": 161,
        "ec": 162,
        "tout": 163,
        "at": 164,
        "mp": 165,
        "bi": 166,
        "ac": 167,
        "ge": 168,
        "end": 169,
        "ens": 170,
        "ve": 171,
        "ran": 172,
        "ter": 173,
        "fait": 174,
        "té": 175,
        "oir": 176,
        "ff": 177,
        "ex": 178,
        "per": 179,
        "ca": 180,
        "res": 181,
        "ain": 182,
        "mê": 183,
        "ser": 184,
        "pu": 185,
        "avec": 186,
        "ois": 187,
        "ab": 188,
        "même": 189,
        "che": 190,
        "mi": 191,
        "pe": 192,
        "ès": 193,
        "bien": 194,
        "ils": 195,
        "lu": 196,
        "mon": 197,
        "sont": 198,
        "tes": 199,
        "ité": 200,
        "son": 201,
        "lo": 202,
        "and": 203,
        "ver": 204,
        "ation": 205,
        "os": 206,
        "né": 207,
        "cou": 208,
        "comme": 209,
        "don": 210,
        "urs": 211,
        "mes": 212,
        "aut": 213,
        "ous": 214,
        "mé": 215,
        "so": 216,
        "faire": 217,
        "ssi": 218,
        "fran": 219,
        "ces": 220,
        "être": 221,
        "aux": 222,
        "ques": 223,
        "cr": 224,
        "op": 225,
        "lé": 226,
        "ins": 227,
        "oit": 228,
        "eux": 229,
        "ère": 230,
        "sa": 231,
        "cu": 232,
        "ni": 233,
        "ta": 234,
        "non": 235,
        "gu": 236,
        "vo": 237,
        "dis": 238,
        "rai": 239,
        "elle": 240,
        "man": 241,
        "quand": 242,
        "pré": 243,
        "fi": 244,
        "mb": 245,
        "no": 246,
        "jus": 247,
        "ux": 248,
        "jour": 249,
        "mer": 250,
        "for": 251,
        "lement": 252,
        "ap": 253,
        "sé": 254,
        "peut": 255,
        "bon": 256,
        "suis": 257,
        "gi": 258,
        "aussi": 259,
        "cer": 260,
        "leur": 261,
        "coup": 262,
        "dit": 263,
        "ons": 264,
        "ort": 265,
        "dire": 266,
        "va": 267,
        "était": 268,
        "fin": 269,
        "vrai": 270,
        "ler": 271,
        "mar": 272,
        "quel": 273,
        "gé": 274,
        "ir": 275,
        "ence": 276,
        "tique": 277,
        "oui": 278,
        "be": 279,
        "ouv": 280,
        "gr": 281,
        "avoir": 282,
        "donc": 283,
        "ors": 284,
        "im": 285,
        "tement": 286,
        "cont": 287,
        "moi": 288,
        "parti": 289,
        "prend": 290,
        "mal": 291,
        "min": 292,
        "très": 293,
        "ense": 294,
        "pi": 295,
        "der": 296,
        "st": 297,
        "fa": 298,
        "el": 299,
        "ag": 300,
        "dr": 301,
        "met": 302,
        "sion": 303,
        "ses": 304,
        "été": 305,
        "ah": 306,
        "eur": 307,
        "ho": 308,
        "puis": 309,
        "ance": 310,
        "cher": 311,
        "pé": 312,
        "là": 313,
        "cet": 314,
        "entre": 315,
        "tres": 316,
        "rais": 317,
        "quoi": 318,
        "th": 319,
        "cor": 320,
        "ble": 321,
        "gens": 322,
        "moins": 323,
        "ér": 324,
        "faut": 325,
        "sans": 326,
        "sent": 327,
        "ut": 328,
        "rien": 329,
        "ème": 330,
        "près": 331,
        "tions": 332,
        "lis": 333,
        "mis": 334,
        "cas": 335,
        "ouve": 336,
        "toi": 337,
        "person": 338,
        "ts": 339,
        "tru": 340,
        "temp": 341,
        "parce": 342,
        "ton": 343,
        "ner": 344,
        "france": 345,
        "pay": 346,
        "pris": 347,
        "juste": 348,
        "lui": 349,
        "do": 350,
        "car": 351,
        "temps": 352,
        "rer": 353,
        "vu": 354,
        "bl": 355,
        "bli": 356,
        "és": 357,
        "ine": 358,
        "cho": 359,
        "alis": 360,
        "ger": 361,
        "poli": 362,
        "cette": 363,
        "to": 364,
        "alors": 365,
        "après": 366,
        "beau": 367,
        "00": 368,
        "autre": 369,
        "aient": 370,
        "ille": 371,
        "jours": 372,
        "ction": 373,
        "contre": 374,
        "asse": 375,
        "tent": 376,
        "ul": 377,
        "main": 378,
        "pre": 379,
        "pense": 380,
        "gar": 381,
        "tous": 382,
        "ph": 383,
        "pri": 384,
        "ion": 385,
        "cé": 386,
        "fois": 387,
        "comp": 388,
        "sy": 389,
        "conn": 390,
        "cour": 391,
        "voir": 392,
        "rait": 393,
        "pli": 394,
        "lon": 395,
        "eff": 396,
        "ants": 397,
        "ture": 398,
        "autres": 399,
        "ie": 400,
        "em": 401,
        "able": 402,
        "pres": 403,
        "ten": 404,
        "soit": 405,
        "core": 406,
        "inter": 407,
        "ga": 408,
        "soci": 409,
        "franç": 410,
        "vent": 411,
        "deux": 412,
        "bou": 413,
        "vraiment": 414,
        "trop": 415,
        "diff": 416,
        "lais": 417,
        "nes": 418,
        "nous": 419,
        "emp": 420,
        "rest": 421,
        "ven": 422,
        "fon": 423,
        "uti": 424,
        "sou": 425,
        "sais": 426,
        "ja": 427,
        "français": 428,
        "encore": 429,
        "aille": 430,
        "où": 431,
        "monde": 432,
        "beaucoup": 433,
        "vie": 434,
        "inté": 435,
        "ée": 436,
        "tain": 437,
        "tant": 438,
        "ad": 439,
        "jet": 440,
        "gran": 441,
        "dent": 442,
        "ouver": 443,
        "age": 444,
        "cis": 445,
        "probl": 446,
        "chan": 447,
        "ail": 448,
        "truc": 449,
        "aires": 450,
        "comm": 451,
        "fais": 452,
        "déj": 453,
        "part": 454,
        "avant": 455,
        "déjà": 456,
        "hu": 457,
        "toujours": 458,
        "peux": 459,
        "vous": 460,
        "ici": 461,
        "gra": 462,
        "aine": 463,
        "vis": 464,
        "comment": 465,
        "chose": 466,
        "personne": 467,
        "imp": 468,
        "prendre": 469,
        "gen": 470,
        "am": 471,
        "vais": 472,
        "mil": 473,
        "pla": 474,
        "trav": 475,
        "pens": 476,
        "gne": 477,
        "alité": 478,
        "merci": 479,
        "avait": 480,
        "tri": 481,
        "vé": 482,
        "ôt": 483,
        "idé": 484,
        "tive": 485,
        "cri": 486,
        "tin": 487,
        "go": 488,
        "ale": 489,
        "teur": 490,
        "iste": 491,
        "pon": 492,
        "jamais": 493,
        "accor": 494,
        "ro": 495,
        "port": 496,
        "por": 497,
        "dre": 498,
        "ers": 499,
        "cul": 500,
        "pays": 501,
        "peti": 502,
        "pend": 503,
        "veu": 504,
        "chi": 505,
        "certain": 506,
        "gros": 507,
        "bo": 508,
        "lan": 509,
        "tif": 510,
        "cons": 511,
        "contr": 512,
        "rê": 513,
        "ori": 514,
        "accord": 515,
        "assez": 516,
        "cla": 517,
        "rap": 518,
        "utilis": 519,
        "plut": 520,
        "problème": 521,
        "lib": 522,
        "genre": 523,
        "arti": 524,
        "tour": 525,
        "leurs": 526,
        "ard": 527,
        "nor": 528,
        "surtout": 529,
        "pos": 530,
        "arri": 531,
        "jou": 532,
        "exemp": 533,
        "poin": 534,
        "premi": 535,
        "auc": 536,
        "publi": 537,
        "lent": 538,
        "logi": 539,
        "sui": 540,
        "vois": 541,
        "trouve": 542,
        "fil": 543,
        "quer": 544,
        "cle": 545,
        "géné": 546,
        "voi": 547,
        "plutôt": 548,
        "veux": 549,
        "cl": 550,
        "avais": 551,
        "na": 552,
        "dou": 553,
        "ats": 554,
        "mieux": 555,
        "politique": 556,
        "ple": 557,
        "pouv": 558,
        "nement": 559,
        "ailleurs": 560,
        "ges": 561,
        "déb": 562,
        "cela": 563,
        "can": 564,
        "exemple": 565,
        "ba": 566,
        "mettre": 567,
        "gue": 568,
        "crois": 569,
        "dev": 570,
        "ue": 571,
        "différ": 572,
        "mme": 573,
        "cha": 574,
        "question": 575,
        "ves": 576,
        "teurs": 577,
        "vre": 578,
        "20": 579,
        "his": 580,
        "ol": 581,
        "deman": 582,
        "reste": 583,
        "semb": 584,
        "depuis": 585,
        "fr": 586,
        "sor": 587,
        "tis": 588,
        "gent": 589,
        "sau": 590,
        "endre": 591,
        "toute": 592,
        "ju": 593,
        "sous": 594,
        "uni": 595,
        "parle": 596,
        "sin": 597,
        "air": 598,
        "serait": 599,
        "raison": 600,
        "tra": 601,
        "vou": 602,
        "fer": 603,
        "oc": 604,
        "seu": 605,
        "gau": 606,
        "cent": 607,
        "mment": 608,
        "sement": 609,
        "répon": 610,
        "ima": 611,
        "connais": 612,
        "sens": 613,
        "droit": 614,
        "qué": 615,
        "ceux": 616,
        "nu": 617,
        "ouais": 618,
        "vers": 619,
        "grand": 620,
        "sant": 621,
        "cré": 622,
        "chez": 623,
        "possi": 624,
        "tiques": 625,
        "bu": 626,
        "éle": 627,
        "anné": 628,
        "enne": 629,
        "ris": 630,
        "font": 631,
        "ations": 632,
        "ob": 633,
        "nent": 634,
        "mont": 635,
        "mani": 636,
        "ché": 637,
        "simp": 638,
        "ang": 639,
        "présent": 640,
        "bonne": 641,
        "point": 642,
        "pourquoi": 643,
        "oy": 644,
        "lation": 645,
        "veau": 646,
        "etc": 647,
        "ères": 648,
        "veut": 649,
        "cep": 650,
        "regar": 651,
        "sus": 652,
        "fau": 653,
        "plu": 654,
        "sû": 655,
        "mbre": 656,
        "elles": 657,
        "ments": 658,
        "travail": 659,
        "sujet": 660,
        "bas": 661,
        "moy": 662,
        "ches": 663,
        "pare": 664,
        "all": 665,
        "pression": 666,
        "fou": 667,
        "cs": 668,
        "llement": 669,
        "aff": 670,
        "souv": 671,
        "aller": 672,
        "oite": 673,
        "bes": 674,
        "bre": 675,
        "partie": 676,
        "pouvoir": 677,
        "oire": 678,
        "toire": 679,
        "produ": 680,
        "posi": 681,
        "fé": 682,
        "autant": 683,
        "ante": 684,
        "pendant": 685,
        "ents": 686,
        "eure": 687,
        "solu": 688,
        "moment": 689,
        "nouve": 690,
        "cation": 691,
        "mainten": 692,
        "cono": 693,
        "intéres": 694,
        "quelques": 695,
        "gauche": 696,
        "anti": 697,
        "ren": 698,
        "seul": 699,
        "tivement": 700,
        "isme": 701,
        "compte": 702,
        "erre": 703,
        "ête": 704,
        "eurs": 705,
        "pec": 706,
        "niveau": 707,
        "doit": 708,
        "nation": 709,
        "oin": 710,
        "fem": 711,
        "br": 712,
        "ty": 713,
        "cours": 714,
        "bah": 715,
        "alle": 716,
        "he": 717,
        "ali": 718,
        "da": 719,
        "cit": 720,
        "hi": 721,
        "tend": 722,
        "dont": 723,
        "çon": 724,
        "ban": 725,
        "sour": 726,
        "passer": 727,
        "ds": 728,
        "trouver": 729,
        "idée": 730,
        "expli": 731,
        "article": 732,
        "sup": 733,
        "ct": 734,
        "certains": 735,
        "semble": 736,
        "ps": 737,
        "écono": 738,
        "chos": 739,
        "rou": 740,
        "aurait": 741,
        "vient": 742,
        "derni": 743,
        "inf": 744,
        "cô": 745,
        "effet": 746,
        "net": 747,
        "parler": 748,
        "prends": 749,
        "passe": 750,
        "maintenant": 751,
        "cur": 752,
        "orité": 753,
        "possible": 754,
        "médi": 755,
        "heure": 756,
        "appe": 757,
        "ing": 758,
        "airement": 759,
        "istes": 760,
        "souvent": 761,
        "réf": 762,
        "the": 763,
        "cra": 764,
        "nom": 765,
        "quement": 766,
        "place": 767,
        "cau": 768,
        "toutes": 769,
        "histoire": 770,
        "popu": 771,
        "char": 772,
        "droite": 773,
        "trouv": 774,
        "notre": 775,
        "choses": 776,
        "syst": 777,
        "suite": 778,
        "bles": 779,
        "ok": 780,
        "sinon": 781,
        "sera": 782,
        "pose": 783,
        "état": 784,
        "10": 785,
        "tel": 786,
        "enf": 787,
        "macr": 788,
        "prof": 789,
        "économi": 790,
        "côté": 791,
        "sul": 792,
        "sûr": 793,
        "personnes": 794,
        "ha": 795,
        "compl": 796,
        "mau": 797,
        "ure": 798,
        "nos": 799,
        "enfin": 800,
        "inci": 801,
        "quelqu": 802,
        "forma": 803,
        "soi": 804,
        "mois": 805,
        "macron": 806,
        "say": 807,
        "petit": 808,
        "arrê": 809,
        "amé": 810,
        "vote": 811,
        "ilité": 812,
        "sage": 813,
        "argu": 814,
        "tro": 815,
        "sorti": 816,
        "cal": 817,
        "quelque": 818,
        "façon": 819,
        "commun": 820,
        "lar": 821,
        "besoin": 822,
        "aucun": 823,
        "effec": 824,
        "essay": 825,
        "fn": 826,
        "fai": 827,
        "super": 828,
        "mauvais": 829,
        "étu": 830,
        "gag": 831,
        "dessus": 832,
        "ration": 833,
        "système": 834,
        "vit": 835,
        "hab": 836,
        "ric": 837,
        "titu": 838,
        "fonction": 839,
        "nombre": 840,
        "mmes": 841,
        "cli": 842,
        "sub": 843,
        "rapport": 844,
        "ures": 845,
        "euro": 846,
        "péri": 847,
        "import": 848,
        "éco": 849,
        "rement": 850,
        "mu": 851,
        "lè": 852,
        "années": 853,
        "tran": 854,
        "suff": 855,
        "long": 856,
        "loi": 857,
        "change": 858,
        "opé": 859,
        "ences": 860,
        "post": 861,
        "ras": 862,
        "empl": 863,
        "servi": 864,
        "faci": 865,
        "aime": 866,
        "tex": 867,
        "premier": 868,
        "ire": 869,
        "ot": 870,
        "ench": 871,
        "justement": 872,
        "avis": 873,
        "ach": 874,
        "savoir": 875,
        "sait": 876,
        "lles": 877,
        "mpa": 878,
        "évi": 879,
        "merde": 880,
        "orte": 881,
        "red": 882,
        "hon": 883,
        "hui": 884,
        "off": 885,
        "mec": 886,
        "paris": 887,
        "loin": 888,
        "venir": 889,
        "permet": 890,
        "société": 891,
        "ellement": 892,
        "ennent": 893,
        "prob": 894,
        "séri": 895,
        "trait": 896,
        "princi": 897,
        "milli": 898,
        "déf": 899,
        "imag": 900,
        "sauf": 901,
        "gan": 902,
        "passé": 903,
        "col": 904,
        "rent": 905,
        "chaque": 906,
        "vont": 907,
        "trans": 908,
        "lire": 909,
        "exac": 910,
        "forcé": 911,
        "cre": 912,
        "ben": 913,
        "indi": 914,
        "cat": 915,
        "ig": 916,
        "fu": 917,
        "voy": 918,
        "celui": 919,
        "demande": 920,
        "culture": 921,
        "lit": 922,
        "actu": 923,
        "ck": 924,
        "effectivement": 925,
        "aucune": 926,
        "crit": 927,
        "face": 928,
        "donné": 929,
        "aujour": 930,
        "ave": 931,
        "pes": 932,
        "sal": 933,
        "situ": 934,
        "aujourd": 935,
        "tte": 936,
        "gré": 937,
        "cus": 938,
        "génér": 939,
        "ains": 940,
        "maj": 941,
        "justi": 942,
        "doute": 943,
        "terr": 944,
        "hé": 945,
        "plein": 946,
        "cap": 947,
        "compris": 948,
        "bla": 949,
        "enti": 950,
        "donne": 951,
        "consi": 952,
        "étaient": 953,
        "habit": 954,
        "reli": 955,
        "val": 956,
        "quelle": 957,
        "fini": 958,
        "pau": 959,
        "tech": 960,
        "oix": 961,
        "viens": 962,
        "maine": 963,
        "ées": 964,
        "fier": 965,
        "donner": 966,
        "bat": 967,
        "position": 968,
        "men": 969,
        "tellement": 970,
        "intérê": 971,
        "site": 972,
        "sex": 973,
        "argent": 974,
        "prise": 975,
        "gouver": 976,
        "peuvent": 977,
        "importe": 978,
        "mor": 979,
        "one": 980,
        "étais": 981,
        "pire": 982,
        "tés": 983,
        "cause": 984,
        "oubli": 985,
        "logique": 986,
        "extr": 987,
        "mort": 988,
        "mage": 989,
        "èrement": 990,
        "cité": 991,
        "forcément": 992,
        "journ": 993,
        "religi": 994,
        "dur": 995,
        "marche": 996,
        "bar": 997,
        "mus": 998,
        "201": 999,
        "lég": 1000,
        "précis": 1001,
        "isla": 1002,
        "ôle": 1003,
        "ég": 1004,
        "thé": 1005,
        "lieu": 1006,
        "endu": 1007,
        "pareil": 1008,
        "dépend": 1009,
        "jeu": 1010,
        "démo": 1011,
        "lench": 1012,
        "progra": 1013,
        "pra": 1014,
        "comprendre": 1015,
        "voter": 1016,
        "hy": 1017,
        "sieurs": 1018,
        "lenchon": 1019,
        "mas": 1020,
        "sig": 1021,
        "um": 1022,
        "pho": 1023,
        "nant": 1024,
        "cherche": 1025,
        "impression": 1026,
        "père": 1027,
        "élec": 1028,
        "tiens": 1029,
        "grou": 1030,
        "ances": 1031,
        "spé": 1032,
        "sta": 1033,
        "000": 1034,
        "vil": 1035,
        "chement": 1036,
        "aî": 1037,
        "plusieurs": 1038,
        "ales": 1039,
        "choix": 1040,
        "argument": 1041,
        "lot": 1042,
        "ablement": 1043,
        "particu": 1044,
        "télé": 1045,
        "contin": 1046,
        "sions": 1047,
        "fond": 1048,
        "vue": 1049,
        "moyen": 1050,
        "voit": 1051,
        "test": 1052,
        "conse": 1053,
        "ly": 1054,
        "trucs": 1055,
        "clas": 1056,
        "ron": 1057,
        "représent": 1058,
        "poser": 1059,
        "posé": 1060,
        "attend": 1061,
        "attent": 1062,
        "base": 1063,
        "alisme": 1064,
        "sci": 1065,
        "ari": 1066,
        "ions": 1067,
        "changer": 1068,
        "èmes": 1069,
        "prix": 1070,
        "pourrait": 1071,
        "simple": 1072,
        "ls": 1073,
        "pons": 1074,
        "fac": 1075,
        "type": 1076,
        "vite": 1077,
        "public": 1078,
        "forme": 1079,
        "candi": 1080,
        "arrive": 1081,
        "lors": 1082,
        "texte": 1083,
        "grande": 1084,
        "bé": 1085,
        "ables": 1086,
        "différent": 1087,
        "clu": 1088,
        "voul": 1089,
        "guerre": 1090,
        "aliste": 1091,
        "manière": 1092,
        "mand": 1093,
        "vidé": 1094,
        "terme": 1095,
        "reddit": 1096,
        "ètement": 1097,
        "ist": 1098,
        "gouvernement": 1099,
        "ages": 1100,
        "femmes": 1101,
        "envie": 1102,
        "ique": 1103,
        "tomb": 1104,
        "rée": 1105,
        "seulement": 1106,
        "penser": 1107,
        "jusqu": 1108,
        "prési": 1109,
        "anci": 1110,
        "situation": 1111,
        "confi": 1112,
        "gueu": 1113,
        "exactement": 1114,
        "ru": 1115,
        "débat": 1116,
        "edit": 1117,
        "mélenchon": 1118,
        "blan": 1119,
        "particuli": 1120,
        "réponse": 1121,
        "europe": 1122,
        "celle": 1123,
        "existe": 1124,
        "ise": 1125,
        "vol": 1126,
        "of": 1127,
        "aurais": 1128,
        "cond": 1129,
        "fs": 1130,
        "hein": 1131,
        "lien": 1132,
        "simplement": 1133,
        "démocra": 1134,
        "homme": 1135,
        "rappe": 1136,
        "lex": 1137,
        "comprends": 1138,
        "ord": 1139,
        "absolu": 1140,
        "respec": 1141,
        "sance": 1142,
        "pen": 1143,
        "gle": 1144,
        "mot": 1145,
        "gement": 1146,
        "concer": 1147,
        "anglais": 1148,
        "cti": 1149,
        "racis": 1150,
        "lou": 1151,
        "asi": 1152,
        "préf": 1153,
        "bos": 1154,
        "cin": 1155,
        "ète": 1156,
        "europé": 1157,
        "président": 1158,
        "aura": 1159,
        "porte": 1160,
        "améric": 1161,
        "venu": 1162,
        "commentaire": 1163,
        "gues": 1164,
        "action": 1165,
        "alement": 1166,
        "volu": 1167,
        "haut": 1168,
        "50": 1169,
        "candid": 1170,
        "vité": 1171,
        "logie": 1172,
        "spéci": 1173,
        "régi": 1174,
        "fort": 1175,
        "général": 1176,
        "usement": 1177,
        "majorité": 1178,
        "appli": 1179,
        "tête": 1180,
        "ussi": 1181,
        "seule": 1182,
        "extrê": 1183,
        "obli": 1184,
        "diffici": 1185,
        "capa": 1186,
        "plan": 1187,
        "première": 1188,
        "matique": 1189,
        "étant": 1190,
        "drait": 1191,
        "atta": 1192,
        "19": 1193,
        "née": 1194,
        "enfants": 1195,
        "cool": 1196,
        "dan": 1197,
        "capit": 1198,
        "devrait": 1199,
        "clairement": 1200,
        "généra": 1201,
        "vas": 1202,
        "its": 1203,
        "els": 1204,
        "meme": 1205,
        "dra": 1206,
        "lin": 1207,
        "selon": 1208,
        "rant": 1209,
        "pou": 1210,
        "we": 1211,
        "chois": 1212,
        "pourtant": 1213,
        "intéressant": 1214,
        "complètement": 1215,
        "rés": 1216,
        "facile": 1217,
        "chau": 1218,
        "aie": 1219,
        "ber": 1220,
        "faux": 1221,
        "direc": 1222,
        "informa": 1223,
        "accep": 1224,
        "let": 1225,
        "commen": 1226,
        "française": 1227,
        "politiques": 1228,
        "contraire": 1229,
        "veulent": 1230,
        "bal": 1231,
        "cès": 1232,
        "payer": 1233,
        "30": 1234,
        "publique": 1235,
        "tie": 1236,
        "mili": 1237,
        "lop": 1238,
        "bour": 1239,
        "différence": 1240,
        "trouvé": 1241,
        "minis": 1242,
        "mêmes": 1243,
        "probablement": 1244,
        "population": 1245,
        "source": 1246,
        "intérêt": 1247,
        "vres": 1248,
        "rend": 1249,
        "ay": 1250,
        "sult": 1251,
        "hors": 1252,
        "gie": 1253,
        "ène": 1254,
        "blo": 1255,
        "unes": 1256,
        "heureusement": 1257,
        "auto": 1258,
        "début": 1259,
        "programme": 1260,
        "projet": 1261,
        "perso": 1262,
        "rière": 1263,
        "parfois": 1264,
        "ensuite": 1265,
        "organ": 1266,
        "film": 1267,
        "but": 1268,
        "risque": 1269,
        "propos": 1270,
        "coû": 1271,
        "ess": 1272,
        "raient": 1273,
        "sac": 1274,
        "peur": 1275,
        "compa": 1276,
        "200": 1277,
        "ref": 1278,
        "minu": 1279,
        "hommes": 1280,
        "liber": 1281,
        "orig": 1282,
        "ili": 1283,
        "viol": 1284,
        "empê": 1285,
        "opin": 1286,
        "chant": 1287,
        "extrême": 1288,
        "musul": 1289,
        "rir": 1290,
        "oh": 1291,
        "ke": 1292,
        "rie": 1293,
        "retour": 1294,
        "velop": 1295,
        "poque": 1296,
        "trois": 1297,
        "boulot": 1298,
        "femme": 1299,
        "conso": 1300,
        "doi": 1301,
        "gment": 1302,
        "internet": 1303,
        "force": 1304,
        "bor": 1305,
        "galement": 1306,
        "problèmes": 1307,
        "imagine": 1308,
        "partir": 1309,
        "heur": 1310,
        "tifs": 1311,
        "quent": 1312,
        "année": 1313,
        "mille": 1314,
        "important": 1315,
        "équi": 1316,
        "lim": 1317,
        "tard": 1318,
        "étran": 1319,
        "rè": 1320,
        "achet": 1321,
        "100": 1322,
        "néces": 1323,
        "ville": 1324,
        "rela": 1325,
        "clair": 1326,
        "déso": 1327,
        "sar": 1328,
        "demment": 1329,
        "plupart": 1330,
        "mod": 1331,
        "sortir": 1332,
        "avaient": 1333,
        "époque": 1334,
        "longtemps": 1335,
        "bilité": 1336,
        "marché": 1337,
        "sort": 1338,
        "prises": 1339,
        "train": 1340,
        "augment": 1341,
        "nature": 1342,
        "respons": 1343,
        "tenir": 1344,
        "message": 1345,
        "résult": 1346,
        "petite": 1347,
        "dic": 1348,
        "croire": 1349,
        "dus": 1350,
        "faudrait": 1351,
        "use": 1352,
        "isation": 1353,
        "preu": 1354,
        "dois": 1355,
        "déci": 1356,
        "utiliser": 1357,
        "difficile": 1358,
        "putain": 1359,
        "idées": 1360,
        "pis": 1361,
        "évit": 1362,
        "senti": 1363,
        "compli": 1364,
        "alistes": 1365,
        "chiff": 1366,
        "emb": 1367,
        "regarde": 1368,
        "tal": 1369,
        "taine": 1370,
        "bout": 1371,
        "immi": 1372,
        "mission": 1373,
        "jec": 1374,
        "lande": 1375,
        "illeur": 1376,
        "lée": 1377,
        "illes": 1378,
        "ki": 1379,
        "certaines": 1380,
        "écou": 1381,
        "écrit": 1382,
        "porter": 1383,
        "tota": 1384,
        "vidéo": 1385,
        "laisse": 1386,
        "dévelop": 1387,
        "manque": 1388,
        "meilleur": 1389,
        "proche": 1390,
        "bais": 1391,
        "verse": 1392,
        "techni": 1393,
        "nouveau": 1394,
        "pren": 1395,
        "absolument": 1396,
        "chance": 1397,
        "pide": 1398,
        "oli": 1399,
        "remar": 1400,
        "pratique": 1401,
        "tient": 1402,
        "telle": 1403,
        "milit": 1404,
        "15": 1405,
        "pous": 1406,
        "lant": 1407,
        "hist": 1408,
        "bref": 1409,
        "propre": 1410,
        "travaille": 1411,
        "honn": 1412,
        "dow": 1413,
        "ies": 1414,
        "final": 1415,
        "vivre": 1416,
        "sique": 1417,
        "uses": 1418,
        "vision": 1419,
        "réalité": 1420,
        "considé": 1421,
        "vaut": 1422,
        "iser": 1423,
        "sympa": 1424,
        "quant": 1425,
        "table": 1426,
        "habitu": 1427,
        "demander": 1428,
        "nan": 1429,
        "fillon": 1430,
        "certaine": 1431,
        "énor": 1432,
        "dés": 1433,
        "mode": 1434,
        "graph": 1435,
        "normal": 1436,
        "ed": 1437,
        "entendu": 1438,
        "prét": 1439,
        "èle": 1440,
        "compar": 1441,
        "éton": 1442,
        "gre": 1443,
        "dition": 1444,
        "presque": 1445,
        "franchement": 1446,
        "mée": 1447,
        "inves": 1448,
        "devant": 1449,
        "famille": 1450,
        "libre": 1451,
        "mble": 1452,
        "qualité": 1453,
        "plais": 1454,
        "tamment": 1455,
        "las": 1456,
        "solution": 1457,
        "campa": 1458,
        "mise": 1459,
        "terror": 1460,
        "ines": 1461,
        "proch": 1462,
        "regarder": 1463,
        "parta": 1464,
        "laisser": 1465,
        "référ": 1466,
        "vieux": 1467,
        "conseil": 1468,
        "ko": 1469,
        "etre": 1470,
        "tives": 1471,
        "désolé": 1472,
        "voil": 1473,
        "partout": 1474,
        "colle": 1475,
        "cir": 1476,
        "jeunes": 1477,
        "entend": 1478,
        "également": 1479,
        "discours": 1480,
        "rester": 1481,
        "continu": 1482,
        "hol": 1483,
        "pan": 1484,
        "mite": 1485,
        "vant": 1486,
        "trai": 1487,
        "essayer": 1488,
        "ass": 1489,
        "défini": 1490,
        "humain": 1491,
        "dès": 1492,
        "aines": 1493,
        "prê": 1494,
        "édu": 1495,
        "vain": 1496,
        "sité": 1497,
        "rique": 1498,
        "clé": 1499,
        "cles": 1500,
        "parents": 1501,
        "groupe": 1502,
        "goo": 1503,
        "sexu": 1504,
        "str": 1505,
        "ards": 1506,
        "visi": 1507,
        "corre": 1508,
        "constru": 1509,
        "tribu": 1510,
        "cest": 1511,
        "ligne": 1512,
        "suffit": 1513,
        "croy": 1514,
        "école": 1515,
        "plo": 1516,
        "éviter": 1517,
        "cen": 1518,
        "peine": 1519,
        "rédu": 1520,
        "cy": 1521,
        "agit": 1522,
        "volont": 1523,
        "gueule": 1524,
        "évidemment": 1525,
        "étudi": 1526,
        "mét": 1527,
        "derrière": 1528,
        "ront": 1529,
        "meille": 1530,
        "avou": 1531,
        "semaine": 1532,
        "dernier": 1533,
        "géni": 1534,
        "gh": 1535,
        "connu": 1536,
        "tron": 1537,
        "appelle": 1538,
        "mots": 1539,
        "libér": 1540,
        "ites": 1541,
        "arrêter": 1542,
        "principe": 1543,
        "viennent": 1544,
        "appar": 1545,
        "mauvaise": 1546,
        "ident": 1547,
        "mour": 1548,
        "lait": 1549,
        "médias": 1550,
        "anal": 1551,
        "iter": 1552,
        "content": 1553,
        "étranger": 1554,
        "hér": 1555,
        "tax": 1556,
        "conner": 1557,
        "fli": 1558,
        "mma": 1559,
        "quasi": 1560,
        "heures": 1561,
        "alisation": 1562,
        "notamment": 1563,
        "dos": 1564,
        "service": 1565,
        "hor": 1566,
        "êtes": 1567,
        "questions": 1568,
        "nel": 1569,
        "principa": 1570,
        "entreprise": 1571,
        "suffis": 1572,
        "you": 1573,
        "employ": 1574,
        "manif": 1575,
        "envi": 1576,
        "puisque": 1577,
        "four": 1578,
        "terre": 1579,
        "riches": 1580,
        "fique": 1581,
        "phone": 1582,
        "orie": 1583,
        "cule": 1584,
        "faits": 1585,
        "arriver": 1586,
        "fas": 1587,
        "légi": 1588,
        "abilité": 1589,
        "sté": 1590,
        "peuple": 1591,
        "indivi": 1592,
        "partis": 1593,
        "jouer": 1594,
        "voilà": 1595,
        "mecs": 1596,
        "titre": 1597,
        "sert": 1598,
        "cru": 1599,
        "ième": 1600,
        "lec": 1601,
        "faute": 1602,
        "af": 1603,
        "nécess": 1604,
        "expéri": 1605,
        "voulais": 1606,
        "sala": 1607,
        "time": 1608,
        "chercher": 1609,
        "vio": 1610,
        "langue": 1611,
        "aimer": 1612,
        "sources": 1613,
        "aha": 1614,
        "moyens": 1615,
        "mans": 1616,
        "etat": 1617,
        "eau": 1618,
        "économie": 1619,
        "ensemble": 1620,
        "victi": 1621,
        "chier": 1622,
        "glo": 1623,
        "fie": 1624,
        "économique": 1625,
        "occu": 1626,
        "ill": 1627,
        "préfère": 1628,
        "soient": 1629,
        "jeux": 1630,
        "imum": 1631,
        "police": 1632,
        "assu": 1633,
        "commentaires": 1634,
        "justice": 1635,
        "campagne": 1636,
        "propri": 1637,
        "discus": 1638,
        "classe": 1639,
        "ément": 1640,
        "opinion": 1641,
        "sécur": 1642,
        "répondre": 1643,
        "totalement": 1644,
        "discu": 1645,
        "noir": 1646,
        "soir": 1647,
        "religion": 1648,
        "mul": 1649,
        "allait": 1650,
        "rase": 1651,
        "attention": 1652,
        "appare": 1653,
        "lois": 1654,
        "rendre": 1655,
        "ami": 1656,
        "enir": 1657,
        "ement": 1658,
        "utilise": 1659,
        "espa": 1660,
        "volution": 1661,
        "espère": 1662,
        "ode": 1663,
        "gars": 1664,
        "grosse": 1665,
        "mari": 1666,
        "espr": 1667,
        "fis": 1668,
        "critique": 1669,
        "millions": 1670,
        "tien": 1671,
        "preuve": 1672,
        "recherche": 1673,
        "social": 1674,
        "hollande": 1675,
        "dom": 1676,
        "dg": 1677,
        "éner": 1678,
        "up": 1679,
        "entreprises": 1680,
        "ainsi": 1681,
        "petits": 1682,
        "décou": 1683,
        "blanc": 1684,
        "remp": 1685,
        "tail": 1686,
        "cident": 1687,
        "wi": 1688,
        "utile": 1689,
        "raisons": 1690,
        "mat": 1691,
        "chô": 1692,
        "ica": 1693,
        "ajou": 1694,
        "insul": 1695,
        "chac": 1696,
        "citoy": 1697,
        "chine": 1698,
        "info": 1699,
        "emploi": 1700,
        "limite": 1701,
        "poi": 1702,
        "aide": 1703,
        "euros": 1704,
        "gration": 1705,
        "phrase": 1706,
        "candidat": 1707,
        "indre": 1708,
        "google": 1709,
        "régu": 1710,
        "liberté": 1711,
        "directement": 1712,
        "fe": 1713,
        "dieu": 1714,
        "affaire": 1715,
        "fav": 1716,
        "contexte": 1717,
        "trump": 1718,
        "cro": 1719,
        "démocratie": 1720,
        "sol": 1721,
        "voiture": 1722,
        "certes": 1723,
        "att": 1724,
        "homo": 1725,
        "ette": 1726,
        "idéo": 1727,
        "disent": 1728,
        "blague": 1729,
        "maines": 1730,
        "expliquer": 1731,
        "image": 1732,
        "bel": 1733,
        "sc": 1734,
        "rapide": 1735,
        "malheureusement": 1736,
        "tivité": 1737,
        "bus": 1738,
        "centre": 1739,
        "salaire": 1740,
        "ole": 1741,
        "consci": 1742,
        "reven": 1743,
        "sarko": 1744,
        "mets": 1745,
        "tié": 1746,
        "aît": 1747,
        "souh": 1748,
        "mouve": 1749,
        "séqu": 1750,
        "sav": 1751,
        "rfrance": 1752,
        "liste": 1753,
        "iner": 1754,
        "ez": 1755,
        "vér": 1756,
        "constitu": 1757,
        "nouvelle": 1758,
        "nage": 1759,
        "environ": 1760,
        "béné": 1761,
        "tée": 1762,
        "coin": 1763,
        "tine": 1764,
        "histori": 1765,
        "vouloir": 1766,
        "page": 1767,
        "ayant": 1768,
        "média": 1769,
        "uniquement": 1770,
        "magne": 1771,
        "mesure": 1772,
        "convain": 1773,
        "grave": 1774,
        "cier": 1775,
        "écri": 1776,
        "études": 1777,
        "second": 1778,
        "parles": 1779,
        "belle": 1780,
        "exis": 1781,
        "conf": 1782,
        "points": 1783,
        "décis": 1784,
        "dernière": 1785,
        "faisait": 1786,
        "commence": 1787,
        "syn": 1788,
        "esprit": 1789,
        "40": 1790,
        "votre": 1791,
        "èce": 1792,
        "ms": 1793,
        "refus": 1794,
        "penses": 1795,
        "van": 1796,
        "cale": 1797,
        "quit": 1798,
        "téri": 1799,
        "unis": 1800,
        "ste": 1801,
        "version": 1802,
        "bil": 1803,
        "valeur": 1804,
        "down": 1805,
        "vée": 1806,
        "aître": 1807,
        "cais": 1808,
        "rus": 1809,
        "analy": 1810,
        "cel": 1811,
        "expérience": 1812,
        "til": 1813,
        "musulmans": 1814,
        "pensais": 1815,
        "tur": 1816,
        "mique": 1817,
        "gres": 1818,
        "lig": 1819,
        "poste": 1820,
        "minutes": 1821,
        "mag": 1822,
        "tendance": 1823,
        "chacun": 1824,
        "const": 1825,
        "réussi": 1826,
        "rempla": 1827,
        "reux": 1828,
        "autor": 1829,
        "ya": 1830,
        "compliqué": 1831,
        "nés": 1832,
        "profes": 1833,
        "allemagne": 1834,
        "sen": 1835,
        "droits": 1836,
        "règ": 1837,
        "ado": 1838,
        "mondi": 1839,
        "influ": 1840,
        "véri": 1841,
        "passage": 1842,
        "ini": 1843,
        "gagner": 1844,
        "mati": 1845,
        "plaisir": 1846,
        "objec": 1847,
        "ceci": 1848,
        "ortement": 1849,
        "envoy": 1850,
        "sive": 1851,
        "cop": 1852,
        "ception": 1853,
        "mala": 1854,
        "ancer": 1855,
        "impossible": 1856,
        "tor": 1857,
        "dû": 1858,
        "autour": 1859,
        "pauvres": 1860,
        "montre": 1861,
        "sérieux": 1862,
        "vac": 1863,
        "fo": 1864,
        "sociale": 1865,
        "mou": 1866,
        "ite": 1867,
        "phy": 1868,
        "apparemment": 1869,
        "courant": 1870,
        "dio": 1871,
        "yeux": 1872,
        "acheter": 1873,
        "photo": 1874,
        "taux": 1875,
        "gés": 1876,
        "feu": 1877,
        "bac": 1878,
        "termin": 1879,
        "prennent": 1880,
        "ditions": 1881,
        "stu": 1882,
        "ffe": 1883,
        "sh": 1884,
        "rése": 1885,
        "scienti": 1886,
        "cf": 1887,
        "mie": 1888,
        "ateur": 1889,
        "rue": 1890,
        "jui": 1891,
        "fémin": 1892,
        "partici": 1893,
        "sécurité": 1894,
        "siè": 1895,
        "montrer": 1896,
        "intel": 1897,
        "associ": 1898,
        "milieu": 1899,
        "chent": 1900,
        "psy": 1901,
        "puisse": 1902,
        "particulier": 1903,
        "my": 1904,
        "carte": 1905,
        "secon": 1906,
        "naz": 1907,
        "dommage": 1908,
        "vention": 1909,
        "plain": 1910,
        "perdu": 1911,
        "explique": 1912,
        "crimin": 1913,
        "ctor": 1914,
        "doivent": 1915,
        "rentre": 1916,
        "manifest": 1917,
        "ic": 1918,
        "détail": 1919,
        "mère": 1920,
        "décla": 1921,
        "avez": 1922,
        "amis": 1923,
        "amen": 1924,
        "tier": 1925,
        "hau": 1926,
        "pauvre": 1927,
        "cée": 1928,
        "meur": 1929,
        "act": 1930,
        "nationale": 1931,
        "voté": 1932,
        "indus": 1933,
        "code": 1934,
        "cations": 1935,
        "bran": 1936,
        "goû": 1937,
        "devient": 1938,
        "çu": 1939,
        "tirer": 1940,
        "agres": 1941,
        "coté": 1942,
        "voie": 1943,
        "demain": 1944,
        "rigo": 1945,
        "ctu": 1946,
        "aider": 1947,
        "primer": 1948,
        "pub": 1949,
        "lol": 1950,
        "teau": 1951,
        "collè": 1952,
        "discussion": 1953,
        "créer": 1954,
        "seront": 1955,
        "by": 1956,
        "rappelle": 1957,
        "ones": 1958,
        "comprend": 1959,
        "dia": 1960,
        "consomma": 1961,
        "dedans": 1962,
        "produit": 1963,
        "rem": 1964,
        "ama": 1965,
        "iller": 1966,
        "blement": 1967,
        "tisme": 1968,
        "vendre": 1969,
        "sty": 1970,
        "wit": 1971,
        "faite": 1972,
        "condam": 1973,
        "ente": 1974,
        "confir": 1975,
        "zar": 1976,
        "avantage": 1977,
        "ctions": 1978,
        "chin": 1979,
        "foi": 1980,
        "finir": 1981,
        "esp": 1982,
        "consid": 1983,
        "travailler": 1984,
        "fut": 1985,
        "région": 1986,
        "instant": 1987,
        "gratu": 1988,
        "prim": 1989,
        "inqui": 1990,
        "sond": 1991,
        "livre": 1992,
        "matin": 1993,
        "violence": 1994,
        "données": 1995,
        "connait": 1996,
        "oires": 1997,
        "fre": 1998,
        "bons": 1999,
        "cteur": 2000,
        "inverse": 2001,
        "jean": 2002,
        "facilement": 2003,
        "peau": 2004,
        "fout": 2005,
        "bile": 2006,
        "capable": 2007,
        "erreur": 2008,
        "voire": 2009,
        "différents": 2010,
        "compét": 2011,
        "laquelle": 2012,
        "tromp": 2013,
        "lés": 2014,
        "foutre": 2015,
        "cris": 2016,
        "fication": 2017,
        "classi": 2018,
        "chiffres": 2019,
        "euse": 2020,
        "évident": 2021,
        "empêche": 2022,
        "bin": 2023,
        "nie": 2024,
        "eusement": 2025,
        "national": 2026,
        "ordre": 2027,
        "courage": 2028,
        "articles": 2029,
        "aliser": 2030,
        "adap": 2031,
        "modèle": 2032,
        "grands": 2033,
        "personnellement": 2034,
        "hypo": 2035,
        "norma": 2036,
        "utilisé": 2037,
        "éch": 2038,
        "journée": 2039,
        "top": 2040,
        "nelle": 2041,
        "règles": 2042,
        "mm": 2043,
        "actions": 2044,
        "conten": 2045,
        "igne": 2046,
        "80": 2047,
        "résultat": 2048,
        "avoue": 2049,
        "origine": 2050,
        "pin": 2051,
        "conséqu": 2052,
        "arguments": 2053,
        "allemand": 2054,
        "sence": 2055,
        "ités": 2056,
        "curr": 2057,
        "impli": 2058,
        "islam": 2059,
        "élu": 2060,
        "endr": 2061,
        "max": 2062,
        "éducation": 2063,
        "apprendre": 2064,
        "définition": 2065,
        "libé": 2066,
        "jeune": 2067,
        "alter": 2068,
        "enfant": 2069,
        "court": 2070,
        "préfé": 2071,
        "tos": 2072,
        "itaire": 2073,
        "presse": 2074,
        "généralement": 2075,
        "annon": 2076,
        "offici": 2077,
        "dence": 2078,
        "méde": 2079,
        "perdre": 2080,
        "neu": 2081,
        "dépu": 2082,
        "endroit": 2083,
        "arrête": 2084,
        "vin": 2085,
        "voix": 2086,
        "sif": 2087,
        "effort": 2088,
        "isé": 2089,
        "santé": 2090,
        "haha": 2091,
        "sorte": 2092,
        "sûrement": 2093,
        "malgré": 2094,
        "métho": 2095,
        "més": 2096,
        "racisme": 2097,
        "gou": 2098,
        "vraie": 2099,
        "borde": 2100,
        "américains": 2101,
        "candidats": 2102,
        "êtement": 2103,
        "chômage": 2104,
        "rac": 2105,
        "bénéfi": 2106,
        "disant": 2107,
        "yer": 2108,
        "chés": 2109,
        "montr": 2110,
        "différentes": 2111,
        "individu": 2112,
        "arab": 2113,
        "sible": 2114,
        "égalité": 2115,
        "élé": 2116,
        "activité": 2117,
        "conditions": 2118,
        "tici": 2119,
        "parlement": 2120,
        "rit": 2121,
        "minimum": 2122,
        "maison": 2123,
        "die": 2124,
        "moitié": 2125,
        "comportement": 2126,
        "votes": 2127,
        "sujets": 2128,
        "guer": 2129,
        "joue": 2130,
        "papi": 2131,
        "privé": 2132,
        "investis": 2133,
        "antes": 2134,
        "har": 2135,
        "dange": 2136,
        "atte": 2137,
        "sain": 2138,
        "usa": 2139,
        "marrant": 2140,
        "bizar": 2141,
        "front": 2142,
        "garde": 2143,
        "pect": 2144,
        "zy": 2145,
        "lage": 2146,
        "ets": 2147,
        "trou": 2148,
        "tenu": 2149,
        "eil": 2150,
        "hamon": 2151,
        "xe": 2152,
        "dirais": 2153,
        "réflé": 2154,
        "12": 2155,
        "communau": 2156,
        "république": 2157,
        "concep": 2158,
        "alli": 2159,
        "européen": 2160,
        "semaines": 2161,
        "appré": 2162,
        "condu": 2163,
        "parait": 2164,
        "deuxième": 2165,
        "quels": 2166,
        "devenir": 2167,
        "conne": 2168,
        "èse": 2169,
        "manger": 2170,
        "hen": 2171,
        "patri": 2172,
        "fié": 2173,
        "ôts": 2174,
        "continuer": 2175,
        "oublié": 2176,
        "parlé": 2177,
        "largement": 2178,
        "rajou": 2179,
        "lève": 2180,
        "confiance": 2181,
        "comman": 2182,
        "bio": 2183,
        "supéri": 2184,
        "rire": 2185,
        "tort": 2186,
        "commencer": 2187,
        "tuer": 2188,
        "18": 2189,
        "ambi": 2190,
        "adminis": 2191,
        "produits": 2192,
        "production": 2193,
        "pensé": 2194,
        "expl": 2195,
        "san": 2196,
        "rage": 2197,
        "drôle": 2198,
        "cadre": 2199,
        "monter": 2200,
        "range": 2201,
        "inst": 2202,
        "budg": 2203,
        "amment": 2204,
        "signi": 2205,
        "combat": 2206,
        "attends": 2207,
        "diri": 2208,
        "charge": 2209,
        "ussie": 2210,
        "formation": 2211,
        "auraient": 2212,
        "chir": 2213,
        "financi": 2214,
        "camp": 2215,
        "fasse": 2216,
        "exist": 2217,
        "rément": 2218,
        "grandes": 2219,
        "fera": 2220,
        "éter": 2221,
        "pie": 2222,
        "25": 2223,
        "quin": 2224,
        "ridi": 2225,
        "ption": 2226,
        "sure": 2227,
        "quali": 2228,
        "lequel": 2229,
        "faisant": 2230,
        "propose": 2231,
        "communi": 2232,
        "lection": 2233,
        "devoir": 2234,
        "nuit": 2235,
        "popul": 2236,
        "défense": 2237,
        "vés": 2238,
        "art": 2239,
        "assemb": 2240,
        "retrouver": 2241,
        "tradu": 2242,
        "bonnes": 2243,
        "tiers": 2244,
        "orient": 2245,
        "loc": 2246,
        "accès": 2247,
        "garder": 2248,
        "nul": 2249,
        "attendre": 2250,
        "affir": 2251,
        "issent": 2252,
        "oblig": 2253,
        "rale": 2254,
        "soucis": 2255,
        "ttes": 2256,
        "immigration": 2257,
        "états": 2258,
        "référence": 2259,
        "meilleure": 2260,
        "appel": 2261,
        "combien": 2262,
        "dure": 2263,
        "mouvement": 2264,
        "services": 2265,
        "revenu": 2266,
        "nuclé": 2267,
        "90": 2268,
        "ager": 2269,
        "icace": 2270,
        "hier": 2271,
        "techno": 2272,
        "théorie": 2273,
        "moyenne": 2274,
        "pt": 2275,
        "até": 2276,
        "tomber": 2277,
        "expression": 2278,
        "profession": 2279,
        "conclu": 2280,
        "salari": 2281,
        "esse": 2282,
        "gique": 2283,
        "prison": 2284,
        "modé": 2285,
        "certainement": 2286,
        "style": 2287,
        "serve": 2288,
        "criti": 2289,
        "gn": 2290,
        "mbres": 2291,
        "possibilité": 2292,
        "esti": 2293,
        "nord": 2294,
        "disais": 2295,
        "défendre": 2296,
        "frais": 2297,
        "finalement": 2298,
        "vari": 2299,
        "çons": 2300,
        "impôts": 2301,
        "bru": 2302,
        "tures": 2303,
        "boî": 2304,
        "mai": 2305,
        "suivre": 2306,
        "rég": 2307,
        "bure": 2308,
        "grâ": 2309,
        "jur": 2310,
        "enseig": 2311,
        "has": 2312,
        "accu": 2313,
        "récu": 2314,
        "sortie": 2315,
        "impa": 2316,
        "currence": 2317,
        "ting": 2318,
        "institu": 2319,
        "changé": 2320,
        "quo": 2321,
        "phé": 2322,
        "serais": 2323,
        "sommes": 2324,
        "tir": 2325,
        "contrôle": 2326,
        "parfai": 2327,
        "parfaitement": 2328,
        "naire": 2329,
        "série": 2330,
        "réguli": 2331,
        "domaine": 2332,
        "book": 2333,
        "60": 2334,
        "connaissance": 2335,
        "améli": 2336,
        "excel": 2337,
        "finance": 2338,
        "phil": 2339,
        "grâce": 2340,
        "arch": 2341,
        "souff": 2342,
        "interdit": 2343,
        "pc": 2344,
        "docu": 2345,
        "assur": 2346,
        "complex": 2347,
        "diver": 2348,
        "savent": 2349,
        "allu": 2350,
        "anim": 2351,
        "fl": 2352,
        "ry": 2353,
        "suppose": 2354,
        "moindre": 2355,
        "fron": 2356,
        "générale": 2357,
        "tab": 2358,
        "dehors": 2359,
        "révolution": 2360,
        "euh": 2361,
        "élection": 2362,
        "russie": 2363,
        "armée": 2364,
        "intelle": 2365,
        "celles": 2366,
        "entendre": 2367,
        "changement": 2368,
        "actuel": 2369,
        "enseigne": 2370,
        "bie": 2371,
        "fan": 2372,
        "rép": 2373,
        "colon": 2374,
        "nécessaire": 2375,
        "meu": 2376,
        "liens": 2377,
        "domin": 2378,
        "champ": 2379,
        "résultats": 2380,
        "date": 2381,
        "retrouve": 2382,
        "pensent": 2383,
        "équipe": 2384,
        "ye": 2385,
        "fille": 2386,
        "sarkozy": 2387,
        "choisir": 2388,
        "vide": 2389,
        "pouvait": 2390,
        "sée": 2391,
        "mail": 2392,
        "naires": 2393,
        "énorme": 2394,
        "win": 2395,
        "arrivé": 2396,
        "ministre": 2397,
        "sud": 2398,
        "agi": 2399,
        "mention": 2400,
        "diction": 2401,
        "former": 2402,
        "occa": 2403,
        "favor": 2404,
        "fra": 2405,
        "nat": 2406,
        "ira": 2407,
        "efficace": 2408,
        "gage": 2409,
        "int": 2410,
        "traite": 2411,
        "oeu": 2412,
        "précé": 2413,
        "rite": 2414,
        "vend": 2415,
        "péti": 2416,
        "proté": 2417,
        "numé": 2418,
        "vier": 2419,
        "propa": 2420,
        "intellectu": 2421,
        "élections": 2422,
        "illé": 2423,
        "ld": 2424,
        "intérêts": 2425,
        "étude": 2426,
        "sse": 2427,
        "vrais": 2428,
        "respect": 2429,
        "allé": 2430,
        "aise": 2431,
        "armes": 2432,
        "direct": 2433,
        "progres": 2434,
        "demandé": 2435,
        "fonctionne": 2436,
        "grés": 2437,
        "remarque": 2438,
        "corps": 2439,
        "accus": 2440,
        "ateurs": 2441,
        "respon": 2442,
        "valeurs": 2443,
        "particulièrement": 2444,
        "quelles": 2445,
        "èrent": 2446,
        "parlais": 2447,
        "fro": 2448,
        "abord": 2449,
        "sés": 2450,
        "atoire": 2451,
        "quasiment": 2452,
        "musique": 2453,
        "mains": 2454,
        "volonté": 2455,
        "tenti": 2456,
        "exper": 2457,
        "sport": 2458,
        "occident": 2459,
        "jap": 2460,
        "technique": 2461,
        "écrire": 2462,
        "ctement": 2463,
        "multi": 2464,
        "alisé": 2465,
        "voulait": 2466,
        "envers": 2467,
        "parisi": 2468,
        "new": 2469,
        "fallait": 2470,
        "science": 2471,
        "contenu": 2472,
        "réaction": 2473,
        "légal": 2474,
        "essaie": 2475,
        "dirait": 2476,
        "sites": 2477,
        "connaître": 2478,
        "dispar": 2479,
        "are": 2480,
        "ide": 2481,
        "doig": 2482,
        "information": 2483,
        "faible": 2484,
        "pote": 2485,
        "raciste": 2486,
        "lat": 2487,
        "électeurs": 2488,
        "surement": 2489,
        "om": 2490,
        "conser": 2491,
        "crise": 2492,
        "développe": 2493,
        "tage": 2494,
        "gal": 2495,
        "pérer": 2496,
        "défend": 2497,
        "tube": 2498,
        "violent": 2499,
        "human": 2500,
        "petites": 2501,
        "intéresse": 2502,
        "vert": 2503,
        "read": 2504,
        "boite": 2505,
        "positions": 2506,
        "sérieusement": 2507,
        "habitude": 2508,
        "sieur": 2509,
        "capacité": 2510,
        "continue": 2511,
        "din": 2512,
        "pol": 2513,
        "lorsque": 2514,
        "correspon": 2515,
        "her": 2516,
        "concerne": 2517,
        "nombreux": 2518,
        "suc": 2519,
        "univer": 2520,
        "wiki": 2521,
        "âge": 2522,
        "origin": 2523,
        "prochaine": 2524,
        "payé": 2525,
        "ak": 2526,
        "réflex": 2527,
        "sante": 2528,
        "souviens": 2529,
        "raisonnement": 2530,
        "pourra": 2531,
        "ancien": 2532,
        "commencé": 2533,
        "70": 2534,
        "potenti": 2535,
        "etait": 2536,
        "prote": 2537,
        "trol": 2538,
        "tation": 2539,
        "fonda": 2540,
        "contrô": 2541,
        "ore": 2542,
        "présidenti": 2543,
        "analyse": 2544,
        "musulman": 2545,
        "rôle": 2546,
        "groupes": 2547,
        "haine": 2548,
        "chinois": 2549,
        "bri": 2550,
        "résu": 2551,
        "aison": 2552,
        "triste": 2553,
        "seuls": 2554,
        "isra": 2555,
        "sociaux": 2556,
        "route": 2557,
        "quarti": 2558,
        "alterna": 2559,
        "masse": 2560,
        "cret": 2561,
        "devrais": 2562,
        "oublier": 2563,
        "humour": 2564,
        "rance": 2565,
        "mun": 2566,
        "matiquement": 2567,
        "nucléaire": 2568,
        "valent": 2569,
        "tter": 2570,
        "quée": 2571,
        "constitution": 2572,
        "lour": 2573,
        "auteur": 2574,
        "dro": 2575,
        "journalistes": 2576,
        "responsabilité": 2577,
        "straté": 2578,
        "cie": 2579,
        "actuellement": 2580,
        "dy": 2581,
        "ferait": 2582,
        "parlent": 2583,
        "considère": 2584,
        "alls": 2585,
        "igno": 2586,
        "essayé": 2587,
        "dres": 2588,
        "dant": 2589,
        "prêt": 2590,
        "aa": 2591,
        "territ": 2592,
        "roy": 2593,
        "avance": 2594,
        "desc": 2595,
        "bordel": 2596,
        "milliards": 2597,
        "join": 2598,
        "pourrais": 2599,
        "communauté": 2600,
        "rapidement": 2601,
        "intent": 2602,
        "intelli": 2603,
        "titude": 2604,
        "vérité": 2605,
        "lations": 2606,
        "monsieur": 2607,
        "trie": 2608,
        "pertin": 2609,
        "coût": 2610,
        "idi": 2611,
        "joli": 2612,
        "pensée": 2613,
        "abon": 2614,
        "tire": 2615,
        "dangereux": 2616,
        "potes": 2617,
        "disons": 2618,
        "décision": 2619,
        "citoyens": 2620,
        "note": 2621,
        "voulu": 2622,
        "lie": 2623,
        "transport": 2624,
        "photos": 2625,
        "den": 2626,
        "villes": 2627,
        "européenne": 2628,
        "cte": 2629,
        "élector": 2630,
        "ft": 2631,
        "avi": 2632,
        "demand": 2633,
        "zone": 2634,
        "disait": 2635,
        "vos": 2636,
        "bite": 2637,
        "fré": 2638,
        "nouvelles": 2639,
        "juge": 2640,
        "trib": 2641,
        "exclu": 2642,
        "chaî": 2643,
        "obligé": 2644,
        "puisqu": 2645,
        "tar": 2646,
        "initi": 2647,
        "négo": 2648,
        "savais": 2649,
        "rieur": 2650,
        "budget": 2651,
        "poster": 2652,
        "nour": 2653,
        "inno": 2654,
        "invent": 2655,
        "personn": 2656,
        "oo": 2657,
        "qués": 2658,
        "sages": 2659,
        "essaye": 2660,
        "japon": 2661,
        "struc": 2662,
        "seraient": 2663,
        "litté": 2664,
        "moti": 2665,
        "actuelle": 2666,
        "juifs": 2667,
        "défaut": 2668,
        "revan": 2669,
        "grosses": 2670,
        "gos": 2671,
        "classique": 2672,
        "gaz": 2673,
        "ettes": 2674,
        "union": 2675,
        "dor": 2676,
        "mbour": 2677,
        "cuse": 2678,
        "chauff": 2679,
        "tas": 2680,
        "excellent": 2681,
        "souhait": 2682,
        "éche": 2683,
        "youtube": 2684,
        "personnel": 2685,
        "parmi": 2686,
        "patron": 2687,
        "allez": 2688,
        "occasion": 2689,
        "total": 2690,
        "hyper": 2691,
        "thread": 2692,
        "permis": 2693,
        "touche": 2694,
        "physique": 2695,
        "pai": 2696,
        "discuter": 2697,
        "compag": 2698,
        "mir": 2699,
        "coûte": 2700,
        "valls": 2701,
        "précédent": 2702,
        "ridicule": 2703,
        "abus": 2704,
        "via": 2705,
        "infos": 2706,
        "propor": 2707,
        "citer": 2708,
        "quet": 2709,
        "dénon": 2710,
        "excuse": 2711,
        "gérer": 2712,
        "vali": 2713,
        "indépend": 2714,
        "accepter": 2715,
        "ative": 2716,
        "faites": 2717,
        "sier": 2718,
        "gestion": 2719,
        "mettent": 2720,
        "devenu": 2721,
        "tons": 2722,
        "mérite": 2723,
        "provo": 2724,
        "client": 2725,
        "morts": 2726,
        "chou": 2727,
        "contrairement": 2728,
        "ek": 2729,
        "14": 2730,
        "concept": 2731,
        "ouai": 2732,
        "réseau": 2733,
        "facebook": 2734,
        "revanche": 2735,
        "tombe": 2736,
        "conneries": 2737,
        "chaud": 2738,
        "aimerais": 2739,
        "carrément": 2740,
        "viend": 2741,
        "papier": 2742,
        "téléphone": 2743,
        "eté": 2744,
        "vidéos": 2745,
        "paraît": 2746,
        "crédi": 2747,
        "concernant": 2748,
        "quis": 2749,
        "cependant": 2750,
        "catég": 2751,
        "lus": 2752,
        "dernières": 2753,
        "mélan": 2754,
        "consommation": 2755,
        "tradition": 2756,
        "thèse": 2757,
        "globa": 2758,
        "ml": 2759,
        "seconde": 2760,
        "dien": 2761,
        "banque": 2762,
        "ultra": 2763,
        "cite": 2764,
        "affi": 2765,
        "moire": 2766,
        "biais": 2767,
        "goût": 2768,
        "profon": 2769,
        "apres": 2770,
        "chef": 2771,
        "souvenir": 2772,
        "tration": 2773,
        "taille": 2774,
        "minorité": 2775,
        "mistes": 2776,
        "responsable": 2777,
        "éli": 2778,
        "miste": 2779,
        "sociales": 2780,
        "mesures": 2781,
        "iques": 2782,
        "lable": 2783,
        "cés": 2784,
        "compter": 2785,
        "bosser": 2786,
        "pain": 2787,
        "conscience": 2788,
        "utilisation": 2789,
        "période": 2790,
        "globalement": 2791,
        "casse": 2792,
        "francais": 2793,
        "adres": 2794,
        "affaires": 2795,
        "idéologie": 2796,
        "cens": 2797,
        "corri": 2798,
        "normalement": 2799,
        "tourner": 2800,
        "11": 2801,
        "journal": 2802,
        "poids": 2803,
        "simil": 2804,
        "espace": 2805,
        "mément": 2806,
        "bras": 2807,
        "pied": 2808,
        "envoyer": 2809,
        "bizarre": 2810,
        "gence": 2811,
        "victimes": 2812,
        "priori": 2813,
        "législa": 2814,
        "nouveaux": 2815,
        "influence": 2816,
        "fils": 2817,
        "lorsqu": 2818,
        "taper": 2819,
        "rées": 2820,
        "détest": 2821,
        "remettre": 2822,
        "empêcher": 2823,
        "objectif": 2824,
        "partage": 2825,
        "rouge": 2826,
        "ade": 2827,
        "intelligent": 2828,
        "premiers": 2829,
        "systé": 2830,
        "clo": 2831,
        "dd": 2832,
        "han": 2833,
        "forte": 2834,
        "prime": 2835,
        "propagan": 2836,
        "gale": 2837,
        "néga": 2838,
        "chances": 2839,
        "jo": 2840,
        "maî": 2841,
        "œu": 2842,
        "ace": 2843,
        "pron": 2844,
        "offre": 2845,
        "américain": 2846,
        "land": 2847,
        "agri": 2848,
        "abst": 2849,
        "rejet": 2850,
        "distribu": 2851,
        "rations": 2852,
        "honnête": 2853,
        "psycho": 2854,
        "honnêtement": 2855,
        "out": 2856,
        "populaire": 2857,
        "13": 2858,
        "permettre": 2859,
        "scientifique": 2860,
        "rembour": 2861,
        "fiques": 2862,
        "films": 2863,
        "types": 2864,
        "sim": 2865,
        "froi": 2866,
        "suffisamment": 2867,
        "régime": 2868,
        "propagande": 2869,
        "mémoire": 2870,
        "vation": 2871,
        "gis": 2872,
        "gnon": 2873,
        "pén": 2874,
        "danger": 2875,
        "marine": 2876,
        "angle": 2877,
        "chat": 2878,
        "job": 2879,
        "pur": 2880,
        "pseu": 2881,
        "citations": 2882,
        "suisse": 2883,
        "récent": 2884,
        "environnement": 2885,
        "investissement": 2886,
        "bâ": 2887,
        "statu": 2888,
        "historique": 2889,
        "zz": 2890,
        "quil": 2891,
        "pit": 2892,
        "républic": 2893,
        "conséquences": 2894,
        "appr": 2895,
        "rarement": 2896,
        "major": 2897,
        "cohér": 2898,
        "énormément": 2899,
        "sachant": 2900,
        "catho": 2901,
        "procé": 2902,
        "départ": 2903,
        "attaque": 2904,
        "pil": 2905,
        "moder": 2906,
        "acte": 2907,
        "lancer": 2908,
        "osop": 2909,
        "16": 2910,
        "contrat": 2911,
        "spa": 2912,
        "entends": 2913,
        "industri": 2914,
        "sp": 2915,
        "rentrer": 2916,
        "équ": 2917,
        "lâ": 2918,
        "inte": 2919,
        "philosop": 2920,
        "choco": 2921,
        "vian": 2922,
        "flics": 2923,
        "aig": 2924,
        "radi": 2925,
        "lecture": 2926,
        "sang": 2927,
        "ignor": 2928,
        "limité": 2929,
        "baisse": 2930,
        "sentiment": 2931,
        "travers": 2932,
        "heureux": 2933,
        "quoti": 2934,
        "posent": 2935,
        "opposition": 2936,
        "cuis": 2937,
        "vachement": 2938,
        "fascis": 2939,
        "lance": 2940,
        "inde": 2941,
        "iron": 2942,
        "plutot": 2943,
        "exemples": 2944,
        "double": 2945,
        "étab": 2946,
        "religieux": 2947,
        "bis": 2948,
        "ahah": 2949,
        "statis": 2950,
        "sélection": 2951,
        "adop": 2952,
        "décidé": 2953,
        "lever": 2954,
        "suivi": 2955,
        "métro": 2956,
        "fondament": 2957,
        "autrement": 2958,
        "aliment": 2959,
        "arme": 2960,
        "vécu": 2961,
        "nais": 2962,
        "revient": 2963,
        "servir": 2964,
        "ventu": 2965,
        "légitime": 2966,
        "répond": 2967,
        "vélo": 2968,
        "bureau": 2969,
        "manipu": 2970,
        "évolu": 2971,
        "écoute": 2972,
        "comptes": 2973,
        "votent": 2974,
        "scand": 2975,
        "classes": 2976,
        "conflit": 2977,
        "autorité": 2978,
        "dement": 2979,
        "écoles": 2980,
        "acces": 2981,
        "ete": 2982,
        "épis": 2983,
        "rier": 2984,
        "banques": 2985,
        "civil": 2986,
        "boîte": 2987,
        "politici": 2988,
        "bof": 2989,
        "siècle": 2990,
        "derniers": 2991,
        "revenir": 2992,
        "chu": 2993,
        "diz": 2994,
        "gée": 2995,
        "lèves": 2996,
        "profit": 2997,
        "sondages": 2998,
        "bois": 2999,
        "féli": 3000,
        "capitalisme": 3001,
        "franco": 3002,
        "imaginer": 3003,
        "vage": 3004,
        "formu": 3005,
        "dité": 3006,
        "ressemble": 3007,
        "not": 3008,
        "racont": 3009,
        "augmenter": 3010,
        "matière": 3011,
        "dette": 3012,
        "commer": 3013,
        "quanti": 3014,
        "17": 3015,
        "effets": 3016,
        "meilleurs": 3017,
        "bit": 3018,
        "stri": 3019,
        "deur": 3020,
        "indé": 3021,
        "accent": 3022,
        "modi": 3023,
        "relativement": 3024,
        "tolé": 3025,
        "traitement": 3026,
        "ral": 3027,
        "faudra": 3028,
        "ker": 3029,
        "propres": 3030,
        "seur": 3031,
        "formes": 3032,
        "mariage": 3033,
        "fous": 3034,
        "curi": 3035,
        "appris": 3036,
        "terroristes": 3037,
        "arma": 3038,
        "ancé": 3039,
        "cence": 3040,
        "spec": 3041,
        "soli": 3042,
        "condition": 3043,
        "représente": 3044,
        "fab": 3045,
        "dat": 3046,
        "choisi": 3047,
        "aurai": 3048,
        "mange": 3049,
        "tôt": 3050,
        "somme": 3051,
        "aband": 3052,
        "échelle": 3053,
        "qua": 3054,
        "ier": 3055,
        "régulièrement": 3056,
        "fronti": 3057,
        "cran": 3058,
        "fant": 3059,
        "honte": 3060,
        "line": 3061,
        "ède": 3062,
        "monte": 3063,
        "twit": 3064,
        "that": 3065,
        "trac": 3066,
        "fonds": 3067,
        "proportion": 3068,
        "écouter": 3069,
        "user": 3070,
        "impact": 3071,
        "adé": 3072,
        "européens": 3073,
        "contribu": 3074,
        "garanti": 3075,
        "victime": 3076,
        "revenus": 3077,
        "discrimin": 3078,
        "fla": 3079,
        "geois": 3080,
        "aite": 3081,
        "auras": 3082,
        "bot": 3083,
        "abandon": 3084,
        "gagné": 3085,
        "neur": 3086,
        "nique": 3087,
        "tenter": 3088,
        "gon": 3089,
        "web": 3090,
        "symb": 3091,
        "préhen": 3092,
        "parfait": 3093,
        "réellement": 3094,
        "signe": 3095,
        "chiant": 3096,
        "extrêmement": 3097,
        "règle": 3098,
        "éventu": 3099,
        "blancs": 3100,
        "informatique": 3101,
        "essenti": 3102,
        "polici": 3103,
        "agir": 3104,
        "étrangers": 3105,
        "viande": 3106,
        "grès": 3107,
        "parole": 3108,
        "métier": 3109,
        "déli": 3110,
        "dar": 3111,
        "visiblement": 3112,
        "ordin": 3113,
        "appeler": 3114,
        "exer": 3115,
        "afin": 3116,
        "devrai": 3117,
        "croissance": 3118,
        "ciel": 3119,
        "risques": 3120,
        "avons": 3121,
        "capital": 3122,
        "lise": 3123,
        "joué": 3124,
        "monn": 3125,
        "ingéni": 3126,
        "hô": 3127,
        "star": 3128,
        "juger": 3129,
        "dirige": 3130,
        "protection": 3131,
        "km": 3132,
        "électri": 3133,
        "bul": 3134,
        "view": 3135,
        "contra": 3136,
        "pronon": 3137,
        "immigrés": 3138,
        "terrorisme": 3139,
        "unique": 3140,
        "gagne": 3141,
        "proches": 3142,
        "démocratique": 3143,
        "paye": 3144,
        "termes": 3145,
        "trouves": 3146,
        "large": 3147,
        "sale": 3148,
        "pollu": 3149,
        "este": 3150,
        "lob": 3151,
        "nées": 3152,
        "mens": 3153,
        "adore": 3154,
        "matiques": 3155,
        "mener": 3156,
        "énergie": 3157,
        "justifier": 3158,
        "organis": 3159,
        "matéri": 3160,
        "enqu": 3161,
        "document": 3162,
        "rible": 3163,
        "sants": 3164,
        "vacances": 3165,
        "vague": 3166,
        "importance": 3167,
        "reur": 3168,
        "riche": 3169,
        "ouvert": 3170,
        "500": 3171,
        "math": 3172,
        "humains": 3173,
        "vérifier": 3174,
        "commerci": 3175,
        "imagin": 3176,
        "roi": 3177,
        "ètes": 3178,
        "passent": 3179,
        "opti": 3180,
        "filles": 3181,
        "etats": 3182,
        "comparaison": 3183,
        "eh": 3184,
        "bur": 3185,
        "cemment": 3186,
        "réduire": 3187,
        "ël": 3188,
        "distin": 3189,
        "salaires": 3190,
        "pseudo": 3191,
        "ège": 3192,
        "proble": 3193,
        "journaliste": 3194,
        "manche": 3195,
        "répondu": 3196,
        "explo": 3197,
        "machine": 3198,
        "motion": 3199,
        "chré": 3200,
        "libéralisme": 3201,
        "ys": 3202,
        "rendu": 3203,
        "importante": 3204,
        "ponses": 3205,
        "comparer": 3206,
        "support": 3207,
        "légiti": 3208,
        "gâ": 3209,
        "économiques": 3210,
        "bomb": 3211,
        "étaire": 3212,
        "mos": 3213,
        "lr": 3214,
        "dite": 3215,
        "pent": 3216,
        "souhaite": 3217,
        "bourgeois": 3218,
        "traiter": 3219,
        "casser": 3220,
        "députés": 3221,
        "exception": 3222,
        "meurs": 3223,
        "opinions": 3224,
        "longue": 3225,
        "voitures": 3226,
        "delà": 3227,
        "chemin": 3228,
        "gy": 3229,
        "aimé": 3230,
        "cerveau": 3231,
        "ane": 3232,
        "échange": 3233,
        "rare": 3234,
        "morale": 3235,
        "hasard": 3236,
        "forcer": 3237,
        "mondiale": 3238,
        "demi": 3239,
        "fle": 3240,
        "géo": 3241,
        "alités": 3242,
        "médec": 3243,
        "détru": 3244,
        "missions": 3245,
        "socio": 3246,
        "mins": 3247,
        "tiennent": 3248,
        "arrivent": 3249,
        "ctif": 3250,
        "considérer": 3251,
        "ciné": 3252,
        "24": 3253,
        "pierre": 3254,
        "lm": 3255,
        "excus": 3256,
        "proposer": 3257,
        "connerie": 3258,
        "gueur": 3259,
        "prenant": 3260,
        "ajouter": 3261,
        "oublie": 3262,
        "nis": 3263,
        "objet": 3264,
        "membres": 3265,
        "bande": 3266,
        "primaire": 3267,
        "gê": 3268,
        "len": 3269,
        "gamin": 3270,
        "ze": 3271,
        "étudiants": 3272,
        "surve": 3273,
        "réponses": 3274,
        "conseille": 3275,
        "dipl": 3276,
        "couleur": 3277,
        "pot": 3278,
        "absence": 3279,
        "compréhen": 3280,
        "auront": 3281,
        "débile": 3282,
        "diplô": 3283,
        "café": 3284,
        "marcher": 3285,
        "présente": 3286,
        "interprét": 3287,
        "constat": 3288,
        "cherches": 3289,
        "avenir": 3290,
        "informations": 3291,
        "posts": 3292,
        "élèves": 3293,
        "méthode": 3294,
        "développement": 3295,
        "troll": 3296,
        "mlp": 3297,
        "respecter": 3298,
        "sons": 3299,
        "ouvrir": 3300,
        "judi": 3301,
        "éro": 3302,
        "oles": 3303,
        "phénom": 3304,
        "mur": 3305,
        "porté": 3306,
        "dul": 3307,
        "embau": 3308,
        "devraient": 3309,
        "coups": 3310,
        "éléments": 3311,
        "tue": 3312,
        "trouvent": 3313,
        "nég": 3314,
        "forum": 3315,
        "sentir": 3316,
        "intention": 3317,
        "seurs": 3318,
        "regardé": 3319,
        "citoyen": 3320,
        "py": 3321,
        "sk": 3322,
        "projets": 3323,
        "usage": 3324,
        "étr": 3325,
        "littéra": 3326,
        "twitter": 3327,
        "coeur": 3328,
        "élus": 3329,
        "atif": 3330,
        "ention": 3331,
        "supérieur": 3332,
        "posté": 3333,
        "illet": 3334,
        "futur": 3335,
        "intérieur": 3336,
        "gs": 3337,
        "construire": 3338,
        "sein": 3339,
        "ressources": 3340,
        "devait": 3341,
        "saint": 3342,
        "proces": 3343,
        "ani": 3344,
        "convaincu": 3345,
        "voient": 3346,
        "réfu": 3347,
        "fall": 3348,
        "allemands": 3349,
        "parlait": 3350,
        "prévu": 3351,
        "concurrence": 3352,
        "réfléchir": 3353,
        "lutte": 3354,
        "pul": 3355,
        "primé": 3356,
        "pardon": 3357,
        "vive": 3358,
        "assemblée": 3359,
        "ible": 3360,
        "élevé": 3361,
        "ories": 3362,
        "explication": 3363,
        "accident": 3364,
        "connaissais": 3365,
        "nies": 3366,
        "aler": 3367,
        "promis": 3368,
        "soirée": 3369,
        "alcool": 3370,
        "appliquer": 3371,
        "prouver": 3372,
        "far": 3373,
        "manu": 3374,
        "35": 3375,
        "racistes": 3376,
        "cieux": 3377,
        "aiment": 3378,
        "organisation": 3379,
        "marque": 3380,
        "paie": 3381,
        "rat": 3382,
        "civi": 3383,
        "banlieu": 3384,
        "existent": 3385,
        "solutions": 3386,
        "ano": 3387,
        "confirme": 3388,
        "lignes": 3389,
        "sois": 3390,
        "création": 3391,
        "fame": 3392,
        "prétend": 3393,
        "militaire": 3394,
        "mit": 3395,
        "bec": 3396,
        "bient": 3397,
        "américaine": 3398,
        "puissance": 3399,
        "mécan": 3400,
        "archi": 3401,
        "sécu": 3402,
        "hique": 3403,
        "exprimer": 3404,
        "sil": 3405,
        "correspond": 3406,
        "paix": 3407,
        "traité": 3408,
        "2012": 3409,
        "cteurs": 3410,
        "ènes": 3411,
        "catholi": 3412,
        "exa": 3413,
        "relation": 3414,
        "emplois": 3415,
        "ose": 3416,
        "réflexion": 3417,
        "critiquer": 3418,
        "détails": 3419,
        "monnaie": 3420,
        "libéral": 3421,
        "cales": 3422,
        "sti": 3423,
        "pousser": 3424,
        "alie": 3425,
        "lun": 3426,
        "smi": 3427,
        "arabes": 3428,
        "procès": 3429,
        "citation": 3430,
        "privée": 3431,
        "réel": 3432,
        "opposé": 3433,
        "pieds": 3434,
        "montré": 3435,
        "valu": 3436,
        "best": 3437,
        "logiques": 3438,
        "pant": 3439,
        "icul": 3440,
        "urgence": 3441,
        "clin": 3442,
        "sel": 3443,
        "taire": 3444,
        "uk": 3445,
        "clients": 3446,
        "sances": 3447,
        "anglo": 3448,
        "entièrement": 3449,
        "chiffre": 3450,
        "oeuvre": 3451,
        "hit": 3452,
        "milliers": 3453,
        "lié": 3454,
        "correct": 3455,
        "radio": 3456,
        "soutien": 3457,
        "renouve": 3458,
        "nels": 3459,
        "écran": 3460,
        "passion": 3461,
        "utilisent": 3462,
        "perd": 3463,
        "absur": 3464,
        "trice": 3465,
        "principalement": 3466,
        "lycée": 3467,
        "ange": 3468,
        "probable": 3469,
        "homosexu": 3470,
        "tait": 3471,
        "appu": 3472,
        "nable": 3473,
        "pole": 3474,
        "mono": 3475,
        "gentil": 3476,
        "difficul": 3477,
        "récemment": 3478,
        "dessous": 3479,
        "existence": 3480,
        "diplo": 3481,
        "afrique": 3482,
        "game": 3483,
        "différente": 3484,
        "identité": 3485,
        "cription": 3486,
        "vrir": 3487,
        "king": 3488,
        "poil": 3489,
        "refu": 3490,
        "complexe": 3491,
        "alo": 3492,
        "amour": 3493,
        "lir": 3494,
        "précise": 3495,
        "hop": 3496,
        "ferme": 3497,
        "parlant": 3498,
        "ples": 3499,
        "typi": 3500,
        "félicitations": 3501,
        "venant": 3502,
        "laissé": 3503,
        "positif": 3504,
        "employés": 3505,
        "anne": 3506,
        "sexe": 3507,
        "pourri": 3508,
        "perman": 3509,
        "race": 3510,
        "descend": 3511,
        "instal": 3512,
        "quotidien": 3513,
        "stoc": 3514,
        "souci": 3515,
        "terrain": 3516,
        "retraite": 3517,
        "territoire": 3518,
        "aspect": 3519,
        "mépris": 3520,
        "arrière": 3521,
        "dérange": 3522,
        "statut": 3523,
        "phones": 3524,
        "ii": 3525,
        "calcul": 3526,
        "équivalent": 3527,
        "tv": 3528,
        "compéti": 3529,
        "obtenir": 3530,
        "parer": 3531,
        "livres": 3532,
        "ka": 3533,
        "dégueu": 3534,
        "avoc": 3535,
        "gué": 3536,
        "décide": 3537,
        "retard": 3538,
        "attendant": 3539,
        "venue": 3540,
        "fail": 3541,
        "pourraient": 3542,
        "bosse": 3543,
        "augmentation": 3544,
        "tourne": 3545,
        "crée": 3546,
        "produire": 3547,
        "attentats": 3548,
        "profs": 3549,
        "interdire": 3550,
        "xé": 3551,
        "profiter": 3552,
        "universe": 3553,
        "2017": 3554,
        "convaincre": 3555,
        "stand": 3556,
        "finit": 3557,
        "pétro": 3558,
        "êt": 3559,
        "évo": 3560,
        "recru": 3561,
        "néo": 3562,
        "revendi": 3563,
        "correctement": 3564,
        "verra": 3565,
        "stratégie": 3566,
        "satis": 3567,
        "grants": 3568,
        "ump": 3569,
        "animaux": 3570,
        "noms": 3571,
        "gare": 3572,
        "remplacer": 3573,
        "para": 3574,
        "génial": 3575,
        "wor": 3576,
        "vienne": 3577,
        "arrêté": 3578,
        "gner": 3579,
        "isent": 3580,
        "identi": 3581,
        "mè": 3582,
        "mons": 3583,
        "nait": 3584,
        "falloir": 3585,
        "entour": 3586,
        "équili": 3587,
        "orique": 3588,
        "regre": 3589,
        "placer": 3590,
        "free": 3591,
        "rappeler": 3592,
        "lux": 3593,
        "humaine": 3594,
        "23": 3595,
        "maje": 3596,
        "vitesse": 3597,
        "chon": 3598,
        "enseignement": 3599,
        "connaissent": 3600,
        "preuves": 3601,
        "wo": 3602,
        "frau": 3603,
        "orer": 3604,
        "réser": 3605,
        "fusion": 3606,
        "ray": 3607,
        "conque": 3608,
        "crédit": 3609,
        "bouff": 3610,
        "privil": 3611,
        "paquet": 3612,
        "scène": 3613,
        "accueil": 3614,
        "uns": 3615,
        "entier": 3616,
        "ght": 3617,
        "nements": 3618,
        "bag": 3619,
        "week": 3620,
        "réalis": 3621,
        "dix": 3622,
        "parent": 3623,
        "gor": 3624,
        "chis": 3625,
        "journaux": 3626,
        "pleine": 3627,
        "univers": 3628,
        "présidentielle": 3629,
        "notion": 3630,
        "adul": 3631,
        "jac": 3632,
        "eth": 3633,
        "espèce": 3634,
        "polé": 3635,
        "99": 3636,
        "mation": 3637,
        "bientôt": 3638,
        "iso": 3639,
        "œur": 3640,
        "cevoir": 3641,
        "pâ": 3642,
        "progrès": 3643,
        "sors": 3644,
        "news": 3645,
        "sociétés": 3646,
        "toucher": 3647,
        "menson": 3648,
        "sivement": 3649,
        "individus": 3650,
        "plément": 3651,
        "assis": 3652,
        "rajouter": 3653,
        "durée": 3654,
        "regard": 3655,
        "plant": 3656,
        "pation": 3657,
        "suivant": 3658,
        "grav": 3659,
        "préféré": 3660,
        "proposé": 3661,
        "nez": 3662,
        "relations": 3663,
        "amer": 3664,
        "obligatoire": 3665,
        "procher": 3666,
        "itaires": 3667,
        "foot": 3668,
        "imposer": 3669,
        "textes": 3670,
        "mini": 3671,
        "dispon": 3672,
        "défi": 3673,
        "russes": 3674,
        "outi": 3675,
        "syrie": 3676,
        "graphique": 3677,
        "restent": 3678,
        "ada": 3679,
        "ition": 3680,
        "caract": 3681,
        "rain": 3682,
        "pois": 3683,
        "ros": 3684,
        "émission": 3685,
        "fun": 3686,
        "45": 3687,
        "ss": 3688,
        "plaindre": 3689,
        "mant": 3690,
        "convers": 3691,
        "bol": 3692,
        "réve": 3693,
        "circu": 3694,
        "réseaux": 3695,
        "contact": 3696,
        "syndic": 3697,
        "réfugi": 3698,
        "divers": 3699,
        "rempl": 3700,
        "actes": 3701,
        "reprendre": 3702,
        "suici": 3703,
        "gnes": 3704,
        "témoi": 3705,
        "gno": 3706,
        "escla": 3707,
        "industrie": 3708,
        "exploit": 3709,
        "débats": 3710,
        "pros": 3711,
        "logement": 3712,
        "protéger": 3713,
        "fantas": 3714,
        "viv": 3715,
        "vente": 3716,
        "négoci": 3717,
        "pte": 3718,
        "génération": 3719,
        "endum": 3720,
        "inutile": 3721,
        "médecin": 3722,
        "bouquin": 3723,
        "secteur": 3724,
        "présence": 3725,
        "bouffe": 3726,
        "assurance": 3727,
        "2016": 3728,
        "conserva": 3729,
        "lier": 3730,
        "cac": 3731,
        "postes": 3732,
        "sinc": 3733,
        "étrang": 3734,
        "exact": 3735,
        "ares": 3736,
        "marx": 3737,
        "péd": 3738,
        "belles": 3739,
        "construction": 3740,
        "dents": 3741,
        "sondage": 3742,
        "détermin": 3743,
        "fortement": 3744,
        "inquiète": 3745,
        "bête": 3746,
        "obser": 3747,
        "prati": 3748,
        "forces": 3749,
        "chans": 3750,
        "partager": 3751,
        "confort": 3752,
        "avancer": 3753,
        "nier": 3754,
        "apprend": 3755,
        "personnage": 3756,
        "acheté": 3757,
        "tible": 3758,
        "noirs": 3759,
        "françaises": 3760,
        "vir": 3761,
        "dicta": 3762,
        "tisation": 3763,
        "assurer": 3764,
        "édit": 3765,
        "insulte": 3766,
        "esh": 3767,
        "reçu": 3768,
        "2015": 3769,
        "profi": 3770,
        "ctivité": 3771,
        "entrée": 3772,
        "bière": 3773,
        "xi": 3774,
        "baisser": 3775,
        "dimanche": 3776,
        "fonctionnement": 3777,
        "passant": 3778,
        "traités": 3779,
        "path": 3780,
        "direction": 3781,
        "sciences": 3782,
        "rigolo": 3783,
        "abor": 3784,
        "créé": 3785,
        "ddit": 3786,
        "commande": 3787,
        "rh": 3788,
        "humanité": 3789,
        "ventions": 3790,
        "intervention": 3791,
        "communication": 3792,
        "diminu": 3793,
        "convi": 3794,
        "réponds": 3795,
        "faisais": 3796,
        "succès": 3797,
        "èles": 3798,
        "icac": 3799,
        "phénomène": 3800,
        "auquel": 3801,
        "boi": 3802,
        "mité": 3803,
        "vivent": 3804,
        "implique": 3805,
        "ortho": 3806,
        "finis": 3807,
        "taxe": 3808,
        "perte": 3809,
        "rales": 3810,
        "échec": 3811,
        "décisions": 3812,
        "semblent": 3813,
        "agis": 3814,
        "policiers": 3815,
        "saison": 3816,
        "commune": 3817,
        "crime": 3818,
        "quartier": 3819,
        "présenter": 3820,
        "ève": 3821,
        "cement": 3822,
        "stupide": 3823,
        "occuper": 3824,
        "pira": 3825,
        "ît": 3826,
        "sco": 3827,
        "hos": 3828,
        "tienne": 3829,
        "mobile": 3830,
        "espé": 3831,
        "salle": 3832,
        "croit": 3833,
        "évolution": 3834,
        "dun": 3835,
        "boire": 3836,
        "intégr": 3837,
        "méchant": 3838,
        "coupa": 3839,
        "fermer": 3840,
        "medi": 3841,
        "voila": 3842,
        "copine": 3843,
        "downvote": 3844,
        "oré": 3845,
        "sug": 3846,
        "intéressante": 3847,
        "rési": 3848,
        "tt": 3849,
        "pratiques": 3850,
        "russe": 3851,
        "lobby": 3852,
        "premières": 3853,
        "travailleurs": 3854,
        "interview": 3855,
        "chien": 3856,
        "surpris": 3857,
        "législatives": 3858,
        "principal": 3859,
        "cules": 3860,
        "22": 3861,
        "tendu": 3862,
        "ranger": 3863,
        "langage": 3864,
        "opération": 3865,
        "incroy": 3866,
        "connus": 3867,
        "complot": 3868,
        "annu": 3869,
        "outre": 3870,
        "sépar": 3871,
        "prochain": 3872,
        "développer": 3873,
        "vs": 3874,
        "fausse": 3875,
        "critiques": 3876,
        "maximum": 3877,
        "structure": 3878,
        "otes": 3879,
        "étique": 3880,
        "gin": 3881,
        "renseig": 3882,
        "scientifiques": 3883,
        "débar": 3884,
        "compens": 3885,
        "nationalité": 3886,
        "tester": 3887,
        "agré": 3888,
        "quitte": 3889,
        "avion": 3890,
        "désor": 3891,
        "différences": 3892,
        "club": 3893,
        "attaquer": 3894,
        "ader": 3895,
        "images": 3896,
        "dame": 3897,
        "lyon": 3898,
        "collègues": 3899,
        "scandale": 3900,
        "souver": 3901,
        "salariés": 3902,
        "zon": 3903,
        "sho": 3904,
        "extéri": 3905,
        "médiatique": 3906,
        "techniquement": 3907,
        "mix": 3908,
        "window": 3909,
        "améliorer": 3910,
        "famili": 3911,
        "tente": 3912,
        "accé": 3913,
        "construc": 3914,
        "inclu": 3915,
        "jugement": 3916,
        "publics": 3917,
        "foutu": 3918,
        "rappel": 3919,
        "vérit": 3920,
        "tape": 3921,
        "couilles": 3922,
        "voile": 3923,
        "annonce": 3924,
        "refuse": 3925,
        "ks": 3926,
        "pages": 3927,
        "lumi": 3928,
        "inégalité": 3929,
        "ji": 3930,
        "çant": 3931,
        "dies": 3932,
        "gamins": 3933,
        "impôt": 3934,
        "judici": 3935,
        "gauch": 3936,
        "connaitre": 3937,
        "éta": 3938,
        "achat": 3939,
        "gas": 3940,
        "instru": 3941,
        "allais": 3942,
        "saou": 3943,
        "ate": 3944,
        "reç": 3945,
        "payés": 3946,
        "arabe": 3947,
        "bruit": 3948,
        "concours": 3949,
        "algé": 3950,
        "cade": 3951,
        "lettre": 3952,
        "abstention": 3953,
        "soutenir": 3954,
        "supprimer": 3955,
        "cherché": 3956,
        "degré": 3957,
        "lité": 3958,
        "histoires": 3959,
        "option": 3960,
        "antisé": 3961,
        "menace": 3962,
        "carrière": 3963,
        "administration": 3964,
        "dossier": 3965,
        "refuser": 3966,
        "conclusion": 3967,
        "etou": 3968,
        "voyage": 3969,
        "doigt": 3970,
        "windows": 3971,
        "commerce": 3972,
        "scé": 3973,
        "écu": 3974,
        "publiques": 3975,
        "couple": 3976,
        "conseils": 3977,
        "mourir": 3978,
        "ny": 3979,
        "df": 3980,
        "viser": 3981,
        "décider": 3982,
        "menac": 3983,
        "visible": 3984,
        "applique": 3985,
        "mouais": 3986,
        "nazis": 3987,
        "habitants": 3988,
        "poutine": 3989,
        "wh": 3990,
        "secondes": 3991,
        "prox": 3992,
        "ambiance": 3993,
        "interro": 3994,
        "commis": 3995,
        "fru": 3996,
        "bulle": 3997,
        "prouv": 3998,
        "adresse": 3999,
        "durant": 4000,
        "façons": 4001,
        "vul": 4002,
        "gène": 4003,
        "écar": 4004,
        "ruption": 4005,
        "èces": 4006,
        "opport": 4007,
        "beur": 4008,
        "sensi": 4009,
        "politiquement": 4010,
        "contrain": 4011,
        "sortent": 4012,
        "censé": 4013,
        "mandat": 4014,
        "dessin": 4015,
        "issu": 4016,
        "crire": 4017,
        "connaît": 4018,
        "listes": 4019,
        "précisément": 4020,
        "avantages": 4021,
        "oie": 4022,
        "chants": 4023,
        "numéro": 4024,
        "expliqué": 4025,
        "centaines": 4026,
        "couver": 4027,
        "2000": 4028,
        "apporter": 4029,
        "fréquent": 4030,
        "jai": 4031,
        "amp": 4032,
        "fourni": 4033,
        "quille": 4034,
        "envis": 4035,
        "colla": 4036,
        "marre": 4037,
        "envoie": 4038,
        "appréci": 4039,
        "local": 4040,
        "gaffe": 4041,
        "battre": 4042,
        "pertinent": 4043,
        "rends": 4044,
        "copi": 4045,
        "préciser": 4046,
        "jeter": 4047,
        "locaux": 4048,
        "espoir": 4049,
        "fiscale": 4050,
        "alternative": 4051,
        "1000": 4052,
        "messages": 4053,
        "catégorie": 4054,
        "outil": 4055,
        "nulle": 4056,
        "subre": 4057,
        "panne": 4058,
        "député": 4059,
        "récupérer": 4060,
        "mine": 4061,
        "habite": 4062,
        "programmes": 4063,
        "grèce": 4064,
        "lesquels": 4065,
        "rité": 4066,
        "évé": 4067,
        "considéré": 4068,
        "hou": 4069,
        "tré": 4070,
        "sch": 4071,
        "propriété": 4072,
        "opportun": 4073,
        "parties": 4074,
        "charlie": 4075,
        "priorité": 4076,
        "installer": 4077,
        "tari": 4078,
        "midi": 4079,
        "traî": 4080,
        "dist": 4081,
        "subreddit": 4082,
        "retourner": 4083,
        "étonner": 4084,
        "conseiller": 4085,
        "fati": 4086,
        "serai": 4087,
        "tf": 4088,
        "limites": 4089,
        "virer": 4090,
        "international": 4091,
        "scén": 4092,
        "march": 4093,
        "miques": 4094,
        "chocolat": 4095,
        "chaîne": 4096,
        "flair": 4097,
        "moral": 4098,
        "yep": 4099,
        "cad": 4100,
        "bc": 4101,
        "physi": 4102,
        "ennes": 4103,
        "répu": 4104,
        "tagne": 4105,
        "1er": 4106,
        "abo": 4107,
        "lt": 4108,
        "transports": 4109,
        "systématiquement": 4110,
        "écr": 4111,
        "angleterre": 4112,
        "techniques": 4113,
        "ath": 4114,
        "collège": 4115,
        "radic": 4116,
        "nécessairement": 4117,
        "raî": 4118,
        "donnent": 4119,
        "rable": 4120,
        "application": 4121,
        "pun": 4122,
        "êtres": 4123,
        "chris": 4124,
        "regis": 4125,
        "gratuit": 4126,
        "laï": 4127,
        "développé": 4128,
        "bonjour": 4129,
        "calme": 4130,
        "sn": 4131,
        "vic": 4132,
        "migrants": 4133,
        "probleme": 4134,
        "illu": 4135,
        "universi": 4136,
        "rejoin": 4137,
        "marse": 4138,
        "claire": 4139,
        "tombé": 4140,
        "graphie": 4141,
        "bretagne": 4142,
        "cancer": 4143,
        "larité": 4144,
        "plait": 4145,
        "master": 4146,
        "signifie": 4147,
        "destin": 4148,
        "politiciens": 4149,
        "véhi": 4150,
        "confon": 4151,
        "nombreuses": 4152,
        "enga": 4153,
        "tiré": 4154,
        "langues": 4155,
        "sacré": 4156,
        "maths": 4157,
        "littéralement": 4158,
        "ia": 4159,
        "faibles": 4160,
        "quantité": 4161,
        "financer": 4162,
        "assi": 4163,
        "bouche": 4164,
        "simpli": 4165,
        "surprise": 4166,
        "astrop": 4167,
        "administra": 4168,
        "spécialement": 4169,
        "efficac": 4170,
        "pomp": 4171,
        "permettent": 4172,
        "échan": 4173,
        "raine": 4174,
        "personnelle": 4175,
        "moche": 4176,
        "nisme": 4177,
        "taf": 4178,
        "300": 4179,
        "trons": 4180,
        "bestof": 4181,
        "ere": 4182,
        "pouvoirs": 4183,
        "tau": 4184,
        "quait": 4185,
        "utiles": 4186,
        "socialiste": 4187,
        "vivant": 4188,
        "pétrole": 4189,
        "françois": 4190,
        "attitude": 4191,
        "vise": 4192,
        "maladie": 4193,
        "terroriste": 4194,
        "quatre": 4195,
        "èlement": 4196,
        "déri": 4197,
        "réus": 4198,
        "épisode": 4199,
        "royau": 4200,
        "acteurs": 4201,
        "dique": 4202,
        "zones": 4203,
        "balance": 4204,
        "pure": 4205,
        "essai": 4206,
        "communiste": 4207,
        "avo": 4208,
        "gure": 4209,
        "anciens": 4210,
        "hésite": 4211,
        "estime": 4212,
        "doigts": 4213,
        "ase": 4214,
        "21": 4215,
        "daesh": 4216,
        "mach": 4217,
        "canada": 4218,
        "processus": 4219,
        "drapeau": 4220,
        "réforme": 4221,
        "coupe": 4222,
        "itali": 4223,
        "tels": 4224,
        "institutions": 4225,
        "dépenses": 4226,
        "dépar": 4227,
        "emmer": 4228,
        "conversation": 4229,
        "fédé": 4230,
        "barre": 4231,
        "université": 4232,
        "résou": 4233,
        "naï": 4234,
        "voisins": 4235,
        "istance": 4236,
        "minist": 4237,
        "sympath": 4238,
        "contac": 4239,
        "venus": 4240,
        "corruption": 4241,
        "tées": 4242,
        "illégal": 4243,
        "intro": 4244,
        "demandes": 4245,
        "secret": 4246,
        "box": 4247,
        "étonnant": 4248,
        "anec": 4249,
        "anon": 4250,
        "enquête": 4251,
        "acle": 4252,
        "complet": 4253,
        "concr": 4254,
        "lasse": 4255,
        "étudiant": 4256,
        "auprès": 4257,
        "victoire": 4258,
        "oeil": 4259,
        "cole": 4260,
        "sauver": 4261,
        "jamb": 4262,
        "mouvements": 4263,
        "connard": 4264,
        "justifi": 4265,
        "aveu": 4266,
        "deja": 4267,
        "plainte": 4268,
        "mous": 4269,
        "totale": 4270,
        "réelle": 4271,
        "contest": 4272,
        "fus": 4273,
        "culer": 4274,
        "idiot": 4275,
        "critères": 4276,
        "iness": 4277,
        "moderne": 4278,
        "ther": 4279,
        "allo": 4280,
        "sie": 4281,
        "populations": 4282,
        "dée": 4283,
        "abil": 4284,
        "tan": 4285,
        "smic": 4286,
        "entraî": 4287,
        "limiter": 4288,
        "anecdo": 4289,
        "culturel": 4290,
        "conte": 4291,
        "tempor": 4292,
        "religions": 4293,
        "conséquence": 4294,
        "homopho": 4295,
        "karma": 4296,
        "croi": 4297,
        "fabri": 4298,
        "sis": 4299,
        "nd": 4300,
        "pleins": 4301,
        "catastrop": 4302,
        "cali": 4303,
        "dizaines": 4304,
        "bouger": 4305,
        "cheveux": 4306,
        "pat": 4307,
        "sarcas": 4308,
        "évite": 4309,
        "sole": 4310,
        "magas": 4311,
        "marge": 4312,
        "pousse": 4313,
        "amus": 4314,
        "utilisateur": 4315,
        "ril": 4316,
        "bad": 4317,
        "media": 4318,
        "lées": 4319,
        "posée": 4320,
        "suit": 4321,
        "cœur": 4322,
        "davantage": 4323,
        "mmer": 4324,
        "tais": 4325,
        "capables": 4326,
        "french": 4327,
        "sign": 4328,
        "idem": 4329,
        "cide": 4330,
        "lourd": 4331,
        "vait": 4332,
        "similaire": 4333,
        "illus": 4334,
        "alise": 4335,
        "milles": 4336,
        "militants": 4337,
        "yp": 4338,
        "grer": 4339,
        "ligence": 4340,
        "phras": 4341,
        "fix": 4342,
        "was": 4343,
        "restau": 4344,
        "fri": 4345,
        "chron": 4346,
        "fisc": 4347,
        "ono": 4348,
        "croyais": 4349,
        "plate": 4350,
        "lige": 4351,
        "souverain": 4352,
        "signifi": 4353,
        "militaires": 4354,
        "biles": 4355,
        "systèmes": 4356,
        "blagues": 4357,
        "rez": 4358,
        "lieux": 4359,
        "exi": 4360,
        "bord": 4361,
        "décl": 4362,
        "rares": 4363,
        "efforts": 4364,
        "tribun": 4365,
        "parceque": 4366,
        "maire": 4367,
        "business": 4368,
        "augmente": 4369,
        "2014": 4370,
        "nest": 4371,
        "servent": 4372,
        "gl": 4373,
        "morce": 4374,
        "interprétation": 4375,
        "lendemain": 4376,
        "subi": 4377,
        "pru": 4378,
        "absurde": 4379,
        "conscient": 4380,
        "tâ": 4381,
        "tag": 4382,
        "stock": 4383,
        "chet": 4384,
        "evi": 4385,
        "mac": 4386,
        "prun": 4387,
        "responsables": 4388,
        "profite": 4389,
        "aimes": 4390,
        "marchés": 4391,
        "urer": 4392,
        "yme": 4393,
        "noter": 4394,
        "graphe": 4395,
        "gère": 4396,
        "bala": 4397,
        "acceptable": 4398,
        "ouest": 4399,
        "désormais": 4400,
        "accro": 4401,
        "rêve": 4402,
        "chasse": 4403,
        "riers": 4404,
        "supplément": 4405,
        "supporter": 4406,
        "planète": 4407,
        "affec": 4408,
        "aides": 4409,
        "mater": 4410,
        "philosoph": 4411,
        "war": 4412,
        "play": 4413,
        "idéal": 4414,
        "honneur": 4415,
        "réfugiés": 4416,
        "afric": 4417,
        "révé": 4418,
        "financement": 4419,
        "référendum": 4420,
        "problé": 4421,
        "dir": 4422,
        "bases": 4423,
        "archie": 4424,
        "frap": 4425,
        "emprun": 4426,
        "bab": 4427,
        "décen": 4428,
        "reconnais": 4429,
        "frontières": 4430,
        "orange": 4431,
        "culpa": 4432,
        "haute": 4433,
        "achète": 4434,
        "érence": 4435,
        "lez": 4436,
        "couper": 4437,
        "centrale": 4438,
        "investi": 4439,
        "audi": 4440,
        "juridi": 4441,
        "titres": 4442,
        "curieux": 4443,
        "voudr": 4444,
        "los": 4445,
        "stage": 4446,
        "traduction": 4447,
        "cartes": 4448,
        "scol": 4449,
        "immo": 4450,
        "mène": 4451,
        "suffisant": 4452,
        "association": 4453,
        "exister": 4454,
        "statistiques": 4455,
        "royaume": 4456,
        "remarquer": 4457,
        "formé": 4458,
        "approche": 4459,
        "musi": 4460,
        "veaux": 4461,
        "jup": 4462,
        "possibles": 4463,
        "méthodes": 4464,
        "cice": 4465,
        "froid": 4466,
        "égal": 4467,
        "nité": 4468,
        "faisaient": 4469,
        "phrases": 4470,
        "compétences": 4471,
        "match": 4472,
        "qualifi": 4473,
        "doc": 4474,
        "ferais": 4475,
        "tise": 4476,
        "raisonnable": 4477,
        "accepte": 4478,
        "lisant": 4479,
        "outils": 4480,
        "civile": 4481,
        "proposition": 4482,
        "méchants": 4483,
        "connaissances": 4484,
        "misme": 4485,
        "ert": 4486,
        "entretien": 4487,
        "itan": 4488,
        "utilisateurs": 4489,
        "maîtr": 4490,
        "nazi": 4491,
        "connec": 4492,
        "situations": 4493,
        "choisis": 4494,
        "odes": 4495,
        "eme": 4496,
        "attaques": 4497,
        "fur": 4498,
        "liv": 4499,
        "million": 4500,
        "gla": 4501,
        "mén": 4502,
        "micro": 4503,
        "fonctionnaires": 4504,
        "libéraux": 4505,
        "quées": 4506,
        "cacher": 4507,
        "zéro": 4508,
        "oute": 4509,
        "gren": 4510,
        "discrimination": 4511,
        "terie": 4512,
        "arbi": 4513,
        "apporte": 4514,
        "pièce": 4515,
        "ice": 4516,
        "rencontr": 4517,
        "alla": 4518,
        "commission": 4519,
        "cos": 4520,
        "féministes": 4521,
        "raconte": 4522,
        "naturel": 4523,
        "recul": 4524,
        "prépar": 4525,
        "figar": 4526,
        "département": 4527,
        "jan": 4528,
        "placé": 4529,
        "directe": 4530,
        "bay": 4531,
        "stres": 4532,
        "veille": 4533,
        "dési": 4534,
        "figaro": 4535,
        "ailles": 4536,
        "immédia": 4537,
        "travaux": 4538,
        "censure": 4539,
        "œuvre": 4540,
        "transi": 4541,
        "endroits": 4542,
        "199": 4543,
        "tiste": 4544,
        "biens": 4545,
        "patrons": 4546,
        "familles": 4547,
        "pars": 4548,
        "parall": 4549,
        "vieille": 4550,
        "black": 4551,
        "richesse": 4552,
        "lutter": 4553,
        "mart": 4554,
        "récla": 4555,
        "foutent": 4556,
        "soleil": 4557,
        "purement": 4558,
        "repor": 4559,
        "balles": 4560,
        "rémun": 4561,
        "lissement": 4562,
        "conver": 4563,
        "dest": 4564,
        "tenté": 4565,
        "shit": 4566,
        "ppe": 4567,
        "remet": 4568,
        "magni": 4569,
        "employé": 4570,
        "reddi": 4571,
        "original": 4572,
        "repas": 4573,
        "faveur": 4574,
        "logies": 4575,
        "perfor": 4576,
        "arre": 4577,
        "caractère": 4578,
        "avocat": 4579,
        "trés": 4580,
        "piration": 4581,
        "légitimité": 4582,
        "gosses": 4583,
        "cinq": 4584,
        "bro": 4585,
        "jlm": 4586,
        "remerci": 4587,
        "erreurs": 4588,
        "dyna": 4589,
        "dune": 4590,
        "infé": 4591,
        "fen": 4592,
        "sache": 4593,
        "modo": 4594,
        "fameux": 4595,
        "géré": 4596,
        "mascul": 4597,
        "communistes": 4598,
        "valable": 4599,
        "blog": 4600,
        "encour": 4601,
        "ario": 4602,
        "prouve": 4603,
        "aver": 4604,
        "quelconque": 4605,
        "twe": 4606,
        "bravo": 4607,
        "troisième": 4608,
        "interdiction": 4609,
        "bili": 4610,
        "concent": 4611,
        "tué": 4612,
        "régions": 4613,
        "domaines": 4614,
        "procédure": 4615,
        "trompe": 4616,
        "incroyable": 4617,
        "éra": 4618,
        "appart": 4619,
        "syste": 4620,
        "détour": 4621,
        "logiquement": 4622,
        "intelligence": 4623,
        "éventuellement": 4624,
        "aja": 4625,
        "pales": 4626,
        "envoyé": 4627,
        "dez": 4628,
        "joy": 4629,
        "with": 4630,
        "bleu": 4631,
        "boites": 4632,
        "vég": 4633,
        "parten": 4634,
        "découvrir": 4635,
        "opéra": 4636,
        "figure": 4637,
        "respecte": 4638,
        "blabla": 4639,
        "isant": 4640,
        "extre": 4641,
        "spect": 4642,
        "fic": 4643,
        "tranquille": 4644,
        "gend": 4645,
        "ennemi": 4646,
        "score": 4647,
        "joueurs": 4648,
        "artis": 4649,
        "ara": 4650,
        "idio": 4651,
        "communisme": 4652,
        "voisin": 4653,
        "albu": 4654,
        "croient": 4655,
        "phili": 4656,
        "failli": 4657,
        "investir": 4658,
        "beso": 4659,
        "ky": 4660,
        "écris": 4661,
        "délit": 4662,
        "semblait": 4663,
        "gur": 4664,
        "mérit": 4665,
        "mutu": 4666,
        "pouvais": 4667,
        "cités": 4668,
        "oba": 4669,
        "luc": 4670,
        "participer": 4671,
        "romp": 4672,
        "reconnaître": 4673,
        "cohérent": 4674,
        "beurre": 4675,
        "guerres": 4676,
        "ouvre": 4677,
        "ates": 4678,
        "coller": 4679,
        "pont": 4680,
        "prostitu": 4681,
        "mars": 4682,
        "charges": 4683,
        "cuisine": 4684,
        "vendu": 4685,
        "invite": 4686,
        "internationale": 4687,
        "quartiers": 4688,
        "chanson": 4689,
        "fili": 4690,
        "autono": 4691,
        "carica": 4692,
        "stade": 4693,
        "open": 4694,
        "file": 4695,
        "gation": 4696,
        "suiv": 4697,
        "canard": 4698,
        "cinéma": 4699,
        "évalu": 4700,
        "lisme": 4701,
        "verre": 4702,
        "isés": 4703,
        "differ": 4704,
        "britan": 4705,
        "égo": 4706,
        "pal": 4707,
        "terrible": 4708,
        "banlieue": 4709,
        "démarche": 4710,
        "crédible": 4711,
        "lai": 4712,
        "if": 4713,
        "fermé": 4714,
        "sembler": 4715,
        "kil": 4716,
        "délire": 4717,
        "over": 4718,
        "technologie": 4719,
        "contrer": 4720,
        "frère": 4721,
        "volontairement": 4722,
        "arrange": 4723,
        "fraude": 4724,
        "nau": 4725,
        "zi": 4726,
        "lor": 4727,
        "ajoute": 4728,
        "intellectuelle": 4729,
        "trajet": 4730,
        "personnages": 4731,
        "ping": 4732,
        "accords": 4733,
        "médecins": 4734,
        "75": 4735,
        "clavier": 4736,
        "arbitr": 4737,
        "quen": 4738,
        "consul": 4739,
        "neutre": 4740,
        "exécu": 4741,
        "blanche": 4742,
        "universel": 4743,
        "maintenir": 4744,
        "gri": 4745,
        "stre": 4746,
        "quitter": 4747,
        "centr": 4748,
        "puissent": 4749,
        "compagnie": 4750,
        "gées": 4751,
        "appropri": 4752,
        "connards": 4753,
        "dise": 4754,
        "anmoins": 4755,
        "compromis": 4756,
        "ub": 4757,
        "pib": 4758,
        "linux": 4759,
        "résumé": 4760,
        "marrer": 4761,
        "ller": 4762,
        "fromage": 4763,
        "comparé": 4764,
        "senger": 4765,
        "précision": 4766,
        "reconnu": 4767,
        "gay": 4768,
        "avouer": 4769,
        "construit": 4770,
        "inscrit": 4771,
        "orter": 4772,
        "luche": 4773,
        "messenger": 4774,
        "débattre": 4775,
        "mélange": 4776,
        "signer": 4777,
        "compétence": 4778,
        "card": 4779,
        "juppé": 4780,
        "èque": 4781,
        "insulter": 4782,
        "déçu": 4783,
        "boute": 4784,
        "légu": 4785,
        "quins": 4786,
        "lette": 4787,
        "élément": 4788,
        "course": 4789,
        "ministère": 4790,
        "persu": 4791,
        "réaliste": 4792,
        "incapable": 4793,
        "syndicats": 4794,
        "rémuné": 4795,
        "portent": 4796,
        "marke": 4797,
        "marqué": 4798,
        "uber": 4799,
        "cherch": 4800,
        "bra": 4801,
        "comb": 4802,
        "chambre": 4803,
        "pathie": 4804,
        "mettant": 4805,
        "marketing": 4806,
        "plaît": 4807,
        "apple": 4808,
        "flou": 4809,
        "fric": 4810,
        "ingénieur": 4811,
        "flemme": 4812,
        "naissance": 4813,
        "imm": 4814,
        "dons": 4815,
        "ouverture": 4816,
        "recherches": 4817,
        "attendais": 4818,
        "principes": 4819,
        "extra": 4820,
        "propositions": 4821,
        "extré": 4822,
        "reproche": 4823,
        "néanmoins": 4824,
        "discussions": 4825,
        "ménage": 4826,
        "faus": 4827,
        "besoins": 4828,
        "belgique": 4829,
        "dirigeants": 4830,
        "gaulle": 4831,
        "pauvreté": 4832,
        "raté": 4833,
        "libérale": 4834,
        "mira": 4835,
        "lites": 4836,
        "coran": 4837,
        "violences": 4838,
        "bourg": 4839,
        "comportements": 4840,
        "éri": 4841,
        "arrivée": 4842,
        "irait": 4843,
        "mises": 4844,
        "camar": 4845,
        "coupable": 4846,
        "sexuelle": 4847,
        "coute": 4848,
        "strictement": 4849,
        "épi": 4850,
        "fiable": 4851,
        "innocent": 4852,
        "dialo": 4853,
        "xd": 4854,
        "ingé": 4855,
        "ryth": 4856,
        "chec": 4857,
        "forcement": 4858,
        "harc": 4859,
        "gager": 4860,
        "influen": 4861,
        "pedia": 4862,
        "andis": 4863,
        "institution": 4864,
        "arrêt": 4865,
        "église": 4866,
        "smart": 4867,
        "gies": 4868,
        "hôpit": 4869,
        "végét": 4870,
        "stop": 4871,
        "éloi": 4872,
        "voler": 4873,
        "moine": 4874,
        "agra": 4875,
        "ignorer": 4876,
        "agréable": 4877,
        "apparti": 4878,
        "déteste": 4879,
        "travaillent": 4880,
        "rapports": 4881,
        "insou": 4882,
        "espérer": 4883,
        "cant": 4884,
        "déclaration": 4885,
        "étrange": 4886,
        "découvert": 4887,
        "promes": 4888,
        "xit": 4889,
        "cible": 4890,
        "manuel": 4891,
        "ahaha": 4892,
        "membre": 4893,
        "déclen": 4894,
        "caca": 4895,
        "frus": 4896,
        "vasion": 4897,
        "ouverte": 4898,
        "profil": 4899,
        "inflation": 4900,
        "employeur": 4901,
        "donnée": 4902,
        "justifie": 4903,
        "électorat": 4904,
        "phon": 4905,
        "alé": 4906,
        "upvote": 4907,
        "osité": 4908,
        "village": 4909,
        "connue": 4910,
        "inégalités": 4911,
        "juges": 4912,
        "wikipedia": 4913,
        "glis": 4914,
        "obs": 4915,
        "retrait": 4916,
        "distribution": 4917,
        "italie": 4918,
        "insultes": 4919,
        "stats": 4920,
        "sifs": 4921,
        "places": 4922,
        "traver": 4923,
        "extérieur": 4924,
        "facteur": 4925,
        "back": 4926,
        "venait": 4927,
        "attentat": 4928,
        "crite": 4929,
        "décennies": 4930,
        "refaire": 4931,
        "chers": 4932,
        "soup": 4933,
        "acquis": 4934,
        "principale": 4935,
        "acté": 4936,
        "franc": 4937,
        "prenne": 4938,
        "loge": 4939,
        "portée": 4940,
        "cherchent": 4941,
        "acti": 4942,
        "cari": 4943,
        "ign": 4944,
        "cache": 4945,
        "trer": 4946,
        "cros": 4947,
        "idéologique": 4948,
        "gras": 4949,
        "raccour": 4950,
        "prétexte": 4951,
        "juif": 4952,
        "now": 4953,
        "leader": 4954,
        "tenue": 4955,
        "opho": 4956,
        "ted": 4957,
        "japonais": 4958,
        "véritable": 4959,
        "rd": 4960,
        "amazon": 4961,
        "choque": 4962,
        "excuses": 4963,
        "abr": 4964,
        "ouf": 4965,
        "mark": 4966,
        "locu": 4967,
        "bâti": 4968,
        "portes": 4969,
        "signé": 4970,
        "expert": 4971,
        "négatif": 4972,
        "jon": 4973,
        "entis": 4974,
        "massac": 4975,
        "montant": 4976,
        "réduit": 4977,
        "subs": 4978,
        "logiciel": 4979,
        "licen": 4980,
        "dormir": 4981,
        "diplôme": 4982,
        "nav": 4983,
        "parisien": 4984,
        "pressions": 4985,
        "potentiellement": 4986,
        "représenter": 4987,
        "reprocher": 4988,
        "mobil": 4989,
        "malin": 4990,
        "gener": 4991,
        "capitaliste": 4992,
        "fiquement": 4993,
        "low": 4994,
        "raconter": 4995,
        "judiciaire": 4996,
        "ouvriers": 4997,
        "voulaient": 4998,
        "plat": 4999,
        "soutiens": 5000,
        "sncf": 5001,
        "tension": 5002,
        "privilé": 5003,
        "fes": 5004,
        "mn": 5005,
        "actif": 5006,
        "modèles": 5007,
        "comprennent": 5008,
        "rons": 5009,
        "dément": 5010,
        "pots": 5011,
        "introdu": 5012,
        "niste": 5013,
        "hil": 5014,
        "miser": 5015,
        "ogie": 5016,
        "prétendre": 5017,
        "condamné": 5018,
        "enri": 5019,
        "voudrais": 5020,
        "ope": 5021,
        "trouvais": 5022,
        "activités": 5023,
        "levé": 5024,
        "rassemb": 5025,
        "difficulté": 5026,
        "philosophie": 5027,
        "matériel": 5028,
        "majorit": 5029,
        "centrales": 5030,
        "remarqué": 5031,
        "nb": 5032,
        "désa": 5033,
        "ving": 5034,
        "rassure": 5035,
        "dégueulasse": 5036,
        "tec": 5037,
        "camé": 5038,
        "compare": 5039,
        "féminisme": 5040,
        "ns": 5041,
        "asser": 5042,
        "cable": 5043,
        "intégration": 5044,
        "empire": 5045,
        "filer": 5046,
        "potentiel": 5047,
        "espagno": 5048,
        "entrer": 5049,
        "pourcent": 5050,
        "poses": 5051,
        "charger": 5052,
        "tromper": 5053,
        "arisme": 5054,
        "drogue": 5055,
        "obama": 5056,
        "what": 5057,
        "israël": 5058,
        "souvenirs": 5059,
        "poss": 5060,
        "log": 5061,
        "passes": 5062,
        "alleman": 5063,
        "valide": 5064,
        "étaires": 5065,
        "brû": 5066,
        "distance": 5067,
        "parlementaire": 5068,
        "viendra": 5069,
        "nar": 5070,
        "revoir": 5071,
        "anarch": 5072,
        "breton": 5073,
        "retirer": 5074,
        "deviennent": 5075,
        "utilité": 5076,
        "pourris": 5077,
        "seras": 5078,
        "espagne": 5079,
        "typiquement": 5080,
        "bouffer": 5081,
        "entrepren": 5082,
        "nourrit": 5083,
        "brut": 5084,
        "sées": 5085,
        "organiser": 5086,
        "fonctionner": 5087,
        "chée": 5088,
        "lamb": 5089,
        "nelles": 5090,
        "moments": 5091,
        "islamo": 5092,
        "fras": 5093,
        "heu": 5094,
        "comparable": 5095,
        "moteur": 5096,
        "clus": 5097,
        "abruti": 5098,
        "lesquelles": 5099,
        "verser": 5100,
        "og": 5101,
        "perspec": 5102,
        "démission": 5103,
        "semblant": 5104,
        "mc": 5105,
        "tours": 5106,
        "harcèlement": 5107,
        "ret": 5108,
        "roule": 5109,
        "quie": 5110,
        "étonne": 5111,
        "déni": 5112,
        "internation": 5113,
        "pê": 5114,
        "portable": 5115,
        "culte": 5116,
        "chirac": 5117,
        "navi": 5118,
        "causes": 5119,
        "mien": 5120,
        "renseigner": 5121,
        "recevoir": 5122,
        "handi": 5123,
        "hypothèse": 5124,
        "prin": 5125,
        "culturelle": 5126,
        "associations": 5127,
        "magnifique": 5128,
        "caricat": 5129,
        "progress": 5130,
        "econo": 5131,
        "licence": 5132,
        "courir": 5133,
        "demandent": 5134,
        "norme": 5135,
        "animal": 5136,
        "paroles": 5137,
        "catif": 5138,
        "délin": 5139,
        "siers": 5140,
        "ote": 5141,
        "urb": 5142,
        "balancer": 5143,
        "xx": 5144,
        "ennu": 5145,
        "crain": 5146,
        "hitler": 5147,
        "sélectionné": 5148,
        "pires": 5149,
        "lumière": 5150,
        "voulez": 5151,
        "dépl": 5152,
        "ancienne": 5153,
        "glob": 5154,
        "prêts": 5155,
        "nellement": 5156,
        "consens": 5157,
        "dédi": 5158,
        "pop": 5159,
        "fallu": 5160,
        "fournis": 5161,
        "minute": 5162,
        "édi": 5163,
        "niques": 5164,
        "ouaip": 5165,
        "locale": 5166,
        "versaire": 5167,
        "sourire": 5168,
        "pubs": 5169,
        "illance": 5170,
        "majoritairement": 5171,
        "automatiquement": 5172,
        "git": 5173,
        "entière": 5174,
        "roman": 5175,
        "tentative": 5176,
        "amende": 5177,
        "consensus": 5178,
        "mauvaises": 5179,
        "sonne": 5180,
        "immédiatement": 5181,
        "tate": 5182,
        "spécifique": 5183,
        "amérique": 5184,
        "destru": 5185,
        "apo": 5186,
        "pects": 5187,
        "atteint": 5188,
        "posant": 5189,
        "gold": 5190,
        "sacri": 5191,
        "rentable": 5192,
        "iran": 5193,
        "connex": 5194,
        "gouvernements": 5195,
        "épar": 5196,
        "peuples": 5197,
        "hum": 5198,
        "pés": 5199,
        "hési": 5200,
        "pollution": 5201,
        "sentent": 5202,
        "chets": 5203,
        "manie": 5204,
        "régler": 5205,
        "blé": 5206,
        "facteurs": 5207,
        "anima": 5208,
        "âme": 5209,
        "sec": 5210,
        "malade": 5211,
        "récupé": 5212,
        "jusque": 5213,
        "appelé": 5214,
        "auteurs": 5215,
        "atteindre": 5216,
        "climat": 5217,
        "simples": 5218,
        "colo": 5219,
        "politi": 5220,
        "nab": 5221,
        "mignon": 5222,
        "dol": 5223,
        "savait": 5224,
        "occupe": 5225,
        "séries": 5226,
        "invité": 5227,
        "camps": 5228,
        "ironie": 5229,
        "boy": 5230,
        "fir": 5231,
        "obligation": 5232,
        "das": 5233,
        "léger": 5234,
        "chrétiens": 5235,
        "any": 5236,
        "chie": 5237,
        "républicains": 5238,
        "onne": 5239,
        "néglige": 5240,
        "ké": 5241,
        "absolue": 5242,
        "vp": 5243,
        "marseille": 5244,
        "armé": 5245,
        "basé": 5246,
        "infras": 5247,
        "assas": 5248,
        "balle": 5249,
        "adapter": 5250,
        "chère": 5251,
        "tox": 5252,
        "èses": 5253,
        "tistes": 5254,
        "catholique": 5255,
        "syndi": 5256,
        "reuse": 5257,
        "monté": 5258,
        "collec": 5259,
        "tiquement": 5260,
        "râ": 5261,
        "européennes": 5262,
        "agent": 5263,
        "pourront": 5264,
        "clinton": 5265,
        "importants": 5266,
        "faim": 5267,
        "soy": 5268,
        "interne": 5269,
        "immense": 5270,
        "grec": 5271,
        "propriétaire": 5272,
        "otan": 5273,
        "tisations": 5274,
        "misère": 5275,
        "cadres": 5276,
        "détruire": 5277,
        "alisée": 5278,
        "exercice": 5279,
        "cien": 5280,
        "patrimoine": 5281,
        "loyer": 5282,
        "immobili": 5283,
        "melenchon": 5284,
        "pute": 5285,
        "brexit": 5286,
        "aper": 5287,
        "phère": 5288,
        "normale": 5289,
        "provin": 5290,
        "format": 5291,
        "caricature": 5292,
        "istan": 5293,
        "nance": 5294,
        "this": 5295,
        "péter": 5296,
        "cord": 5297,
        "veuille": 5298,
        "fassent": 5299,
        "expé": 5300,
        "ox": 5301,
        "circonst": 5302,
        "iel": 5303,
        "acteur": 5304,
        "cultures": 5305,
        "2013": 5306,
        "encourage": 5307,
        "evidemment": 5308,
        "septe": 5309,
        "voies": 5310,
        "austr": 5311,
        "soulig": 5312,
        "debout": 5313,
        "400": 5314,
        "osé": 5315,
        "exprès": 5316,
        "parallèle": 5317,
        "assa": 5318,
        "resté": 5319,
        "taff": 5320,
        "québec": 5321,
        "enregis": 5322,
        "aies": 5323,
        "parisiens": 5324,
        "priva": 5325,
        "tests": 5326,
        "notes": 5327,
        "rythme": 5328,
        "infrastruc": 5329,
        "taxes": 5330,
        "hiér": 5331,
        "feuille": 5332,
        "bonheur": 5333,
        "volontaire": 5334,
        "paragra": 5335,
        "paragraph": 5336,
        "ïs": 5337,
        "papa": 5338,
        "émissions": 5339,
        "papiers": 5340,
        "feront": 5341,
        "populaires": 5342,
        "définir": 5343,
        "fête": 5344,
        "chute": 5345,
        "quier": 5346,
        "alisés": 5347,
        "sincèrement": 5348,
        "cettes": 5349,
        "artifi": 5350,
        "exploitation": 5351,
        "cm": 5352,
        "mathé": 5353,
        "lettres": 5354,
        "économies": 5355,
        "mait": 5356,
        "tot": 5357,
        "loy": 5358,
        "od": 5359,
        "compréhension": 5360,
        "actéris": 5361,
        "résoudre": 5362,
        "assumer": 5363,
        "tants": 5364,
        "voici": 5365,
        "ude": 5366,
        "mate": 5367,
        "bilan": 5368,
        "stal": 5369,
        "intéressé": 5370,
        "chaus": 5371,
        "repris": 5372,
        "def": 5373,
        "vè": 5374,
        "iné": 5375,
        "foire": 5376,
        "montrent": 5377,
        "apprécie": 5378,
        "caractéris": 5379,
        "elec": 5380,
        "scr": 5381,
        "septembre": 5382,
        "évidence": 5383,
        "cites": 5384,
        "arrives": 5385,
        "150": 5386,
        "way": 5387,
        "verras": 5388,
        "avancé": 5389,
        "indépendance": 5390,
        "ariat": 5391,
        "divis": 5392,
        "réactions": 5393,
        "multipli": 5394,
        "jouent": 5395,
        "couche": 5396,
        "primaires": 5397,
        "office": 5398,
        "retrouvé": 5399,
        "réussir": 5400,
        "horrible": 5401,
        "command": 5402,
        "wow": 5403,
        "assassin": 5404,
        "indépendant": 5405,
        "voca": 5406,
        "bris": 5407,
        "affirmer": 5408,
        "bê": 5409,
        "médica": 5410,
        "dingue": 5411,
        "hard": 5412,
        "lettes": 5413,
        "gosse": 5414,
        "chel": 5415,
        "niveaux": 5416,
        "étrangère": 5417,
        "républicain": 5418,
        "agriculture": 5419,
        "pourras": 5420,
        "cv": 5421,
        "couverture": 5422,
        "contrôler": 5423,
        "usine": 5424,
        "équilibre": 5425,
        "touché": 5426,
        "écla": 5427,
        "irak": 5428,
        "urss": 5429,
        "beaux": 5430,
        "naturellement": 5431,
        "cine": 5432,
        "adapté": 5433,
        "invit": 5434,
        "sanction": 5435,
        "lons": 5436,
        "fd": 5437,
        "avan": 5438,
        "simu": 5439,
        "regardes": 5440,
        "crimes": 5441,
        "corromp": 5442,
        "actualité": 5443,
        "communaut": 5444,
        "engage": 5445,
        "fournir": 5446,
        "verte": 5447,
        "financier": 5448,
        "nuance": 5449,
        "olique": 5450,
        "pièces": 5451,
        "pati": 5452,
        "surer": 5453,
        "pée": 5454,
        "fiche": 5455,
        "coûts": 5456,
        "boule": 5457,
        "déficit": 5458,
        "thème": 5459,
        "caisse": 5460,
        "34": 5461,
        "vendredi": 5462,
        "liés": 5463,
        "interpr": 5464,
        "corée": 5465,
        "visu": 5466,
        "frontière": 5467,
        "gentils": 5468,
        "dam": 5469,
        "robo": 5470,
        "gard": 5471,
        "tandis": 5472,
        "bt": 5473,
        "indis": 5474,
        "deurs": 5475,
        "serveur": 5476,
        "écologie": 5477,
        "case": 5478,
        "hété": 5479,
        "admettre": 5480,
        "silence": 5481,
        "liqui": 5482,
        "oblige": 5483,
        "arrivera": 5484,
        "couleurs": 5485,
        "intégrer": 5486,
        "ibles": 5487,
        "xén": 5488,
        "touristes": 5489,
        "flip": 5490,
        "milliard": 5491,
        "sures": 5492,
        "pti": 5493,
        "landais": 5494,
        "réaliser": 5495,
        "mette": 5496,
        "plaque": 5497,
        "trah": 5498,
        "confront": 5499,
        "95": 5500,
        "prest": 5501,
        "bouquins": 5502,
        "janvier": 5503,
        "2007": 5504,
        "désaccord": 5505,
        "rsa": 5506,
        "éthique": 5507,
        "libres": 5508,
        "noël": 5509,
        "corriger": 5510,
        "cyc": 5511,
        "cannab": 5512,
        "parcours": 5513,
        "cdi": 5514,
        "avions": 5515,
        "nations": 5516,
        "cami": 5517,
        "exploi": 5518,
        "tolérance": 5519,
        "élire": 5520,
        "machin": 5521,
        "hiver": 5522,
        "jeunesse": 5523,
        "accorde": 5524,
        "nistes": 5525,
        "répète": 5526,
        "intéresser": 5527,
        "posants": 5528,
        "scénario": 5529,
        "scolaire": 5530,
        "rouler": 5531,
        "turquie": 5532,
        "relève": 5533,
        "ades": 5534,
        "disponible": 5535,
        "2008": 5536,
        "normes": 5537,
        "offrir": 5538,
        "occurrence": 5539,
        "hausse": 5540,
        "guil": 5541,
        "recours": 5542,
        "ball": 5543,
        "montée": 5544,
        "dose": 5545,
        "contrats": 5546,
        "standard": 5547,
        "bénéfici": 5548,
        "cannabis": 5549,
        "rajoute": 5550,
        "rendent": 5551,
        "dizaine": 5552,
        "bonus": 5553,
        "flic": 5554,
        "puissant": 5555,
        "indique": 5556,
        "mentalité": 5557,
        "ity": 5558,
        "198": 5559,
        "salut": 5560,
        "tl": 5561,
        "live": 5562,
        "heb": 5563,
        "privilégi": 5564,
        "poche": 5565,
        "rempli": 5566,
        "wer": 5567,
        "échap": 5568,
        "mentionné": 5569,
        "block": 5570,
        "retourne": 5571,
        "dog": 5572,
        "due": 5573,
        "salarié": 5574,
        "collègue": 5575,
        "convention": 5576,
        "déplace": 5577,
        "orthographe": 5578,
        "étape": 5579,
        "whi": 5580,
        "compatible": 5581,
        "climatique": 5582,
        "officiel": 5583,
        "intéressants": 5584,
        "marie": 5585,
        "amélior": 5586,
        "oper": 5587,
        "subjec": 5588,
        "monopole": 5589,
        "pointe": 5590,
        "nécessité": 5591,
        "concrètement": 5592,
        "câ": 5593,
        "hh": 5594,
        "garantie": 5595,
        "ep": 5596,
        "disci": 5597,
        "buzz": 5598,
        "répéter": 5599,
        "extrait": 5600,
        "lepen": 5601,
        "meilleures": 5602,
        "quants": 5603,
        "moquer": 5604,
        "accessible": 5605,
        "plé": 5606,
        "générations": 5607,
        "horreur": 5608,
        "atives": 5609,
        "représentent": 5610,
        "difficilement": 5611,
        "sements": 5612,
        "lancé": 5613,
        "tribunal": 5614,
        "alou": 5615,
        "bet": 5616,
        "passera": 5617,
        "attendu": 5618,
        "décrit": 5619,
        "rencontre": 5620,
        "bébé": 5621,
        "maux": 5622,
        "productif": 5623,
        "diversité": 5624,
        "algérie": 5625,
        "réchauff": 5626,
        "ètent": 5627,
        "hypocris": 5628,
        "rome": 5629,
        "examen": 5630,
        "arna": 5631,
        "symbole": 5632,
        "hebdo": 5633,
        "cotisations": 5634,
        "soutient": 5635,
        "logue": 5636,
        "appartement": 5637,
        "modération": 5638,
        "prag": 5639,
        "médecine": 5640,
        "pet": 5641,
        "dictature": 5642,
        "complète": 5643,
        "amal": 5644,
        "ressenti": 5645,
        "réputation": 5646,
        "dépasse": 5647,
        "passée": 5648,
        "bénéfice": 5649,
        "boîtes": 5650,
        "champs": 5651,
        "desti": 5652,
        "représentation": 5653,
        "personnalité": 5654,
        "bf": 5655,
        "travaillé": 5656,
        "surface": 5657,
        "hallu": 5658,
        "fixe": 5659,
        "électrique": 5660,
        "sauve": 5661,
        "hmm": 5662,
        "chômeurs": 5663,
        "noire": 5664,
        "mairie": 5665,
        "enva": 5666,
        "bataille": 5667,
        "machines": 5668,
        "rédi": 5669,
        "gales": 5670,
        "bossé": 5671,
        "accepté": 5672,
        "préparer": 5673,
        "fuck": 5674,
        "limit": 5675,
        "ning": 5676,
        "testé": 5677,
        "munici": 5678,
        "h30": 5679,
        "consent": 5680,
        "pouvaient": 5681,
        "plomb": 5682,
        "automatique": 5683,
        "maman": 5684,
        "ong": 5685,
        "confusion": 5686,
        "enfer": 5687,
        "lables": 5688,
        "ferai": 5689,
        "from": 5690,
        "ordinateur": 5691,
        "banc": 5692,
        "kg": 5693,
        "génie": 5694,
        "ding": 5695,
        "banni": 5696,
        "aissent": 5697,
        "impose": 5698,
        "ironique": 5699,
        "insé": 5700,
        "nants": 5701,
        "rup": 5702,
        "ére": 5703,
        "immeu": 5704,
        "visage": 5705,
        "cycle": 5706,
        "gui": 5707,
        "ordi": 5708,
        "hypocrisie": 5709,
        "écart": 5710,
        "consiste": 5711,
        "big": 5712,
        "xénopho": 5713,
        "compose": 5714,
        "bloquer": 5715,
        "réformes": 5716,
        "siècles": 5717,
        "réussite": 5718,
        "distinction": 5719,
        "bres": 5720,
        "istique": 5721,
        "extrêmes": 5722,
        "côtés": 5723,
        "apprentis": 5724,
        "prépa": 5725,
        "existait": 5726,
        "remonter": 5727,
        "ouvez": 5728,
        "préfèrent": 5729,
        "voyons": 5730,
        "passés": 5731,
        "vocabul": 5732,
        "donnes": 5733,
        "changements": 5734,
        "dollar": 5735,
        "nouvel": 5736,
        "attribu": 5737,
        "oft": 5738,
        "rigueur": 5739,
        "socialistes": 5740,
        "rs": 5741,
        "cc": 5742,
        "crip": 5743,
        "bouge": 5744,
        "acadé": 5745,
        "vet": 5746,
        "asia": 5747,
        "rembourser": 5748,
        "dénoncer": 5749,
        "allant": 5750,
        "efficacité": 5751,
        "chop": 5752,
        "agricul": 5753,
        "tac": 5754,
        "fat": 5755,
        "rhét": 5756,
        "downvotes": 5757,
        "concentre": 5758,
        "débiles": 5759,
        "socialisme": 5760,
        "dégra": 5761,
        "seules": 5762,
        "pouvez": 5763,
        "vocabulaire": 5764,
        "have": 5765,
        "lac": 5766,
        "spe": 5767,
        "chercheurs": 5768,
        "œil": 5769,
        "qq": 5770,
        "copain": 5771,
        "privées": 5772,
        "chocola": 5773,
        "roid": 5774,
        "tva": 5775,
        "établissement": 5776,
        "province": 5777,
        "ham": 5778,
        "poussé": 5779,
        "libertés": 5780,
        "trine": 5781,
        "album": 5782,
        "ties": 5783,
        "session": 5784,
        "motivation": 5785,
        "électron": 5786,
        "clan": 5787,
        "jard": 5788,
        "changent": 5789,
        "spor": 5790,
        "plans": 5791,
        "toutefois": 5792,
        "bert": 5793,
        "vice": 5794,
        "londres": 5795,
        "réduction": 5796,
        "tabac": 5797,
        "inspi": 5798,
        "bagu": 5799,
        "émotion": 5800,
        "clai": 5801,
        "nantes": 5802,
        "magique": 5803,
        "dites": 5804,
        "compréhensible": 5805,
        "classiques": 5806,
        "essentiel": 5807,
        "sauce": 5808,
        "incar": 5809,
        "jiha": 5810,
        "refusé": 5811,
        "choc": 5812,
        "juridique": 5813,
        "fautes": 5814,
        "coins": 5815,
        "objectifs": 5816,
        "avent": 5817,
        "bcp": 5818,
        "nettement": 5819,
        "religieuse": 5820,
        "minorités": 5821,
        "sarcasme": 5822,
        "oter": 5823,
        "athé": 5824,
        "paradis": 5825,
        "renseigne": 5826,
        "sax": 5827,
        "pers": 5828,
        "annoncé": 5829,
        "sins": 5830,
        "six": 5831,
        "rencontré": 5832,
        "amin": 5833,
        "gén": 5834,
        "argumentation": 5835,
        "aér": 5836,
        "légale": 5837,
        "assure": 5838,
        "mentir": 5839,
        "imb": 5840,
        "essence": 5841,
        "poisson": 5842,
        "confirmer": 5843,
        "ders": 5844,
        "écriture": 5845,
        "passait": 5846,
        "minor": 5847,
        "bagno": 5848,
        "abou": 5849,
        "bayrou": 5850,
        "jihadis": 5851,
        "sauter": 5852,
        "paci": 5853,
        "alliance": 5854,
        "isée": 5855,
        "pleurer": 5856,
        "aidé": 5857,
        "convictions": 5858,
        "interlocu": 5859,
        "bloc": 5860,
        "telles": 5861,
        "négligeable": 5862,
        "vraies": 5863,
        "cercle": 5864,
        "communes": 5865,
        "réo": 5866,
        "mid": 5867,
        "sat": 5868,
        "voyant": 5869,
        "laïcité": 5870,
        "mouv": 5871,
        "joueur": 5872,
        "ende": 5873,
        "tins": 5874,
        "déce": 5875,
        "doutes": 5876,
        "sexuel": 5877,
        "transition": 5878,
        "parc": 5879,
        "pique": 5880,
        "current": 5881,
        "surveillance": 5882,
        "ètres": 5883,
        "dict": 5884,
        "saient": 5885,
        "oyer": 5886,
        "manipulation": 5887,
        "sexisme": 5888,
        "nourriture": 5889,
        "suicide": 5890,
        "métiers": 5891,
        "colère": 5892,
        "sensible": 5893,
        "confondre": 5894,
        "apprécier": 5895,
        "scruti": 5896,
        "changera": 5897,
        "policier": 5898,
        "zo": 5899,
        "gratuite": 5900,
        "rants": 5901,
        "interes": 5902,
        "adulte": 5903,
        "stable": 5904,
        "chiens": 5905,
        "honnêt": 5906,
        "honnêteté": 5907,
        "era": 5908,
        "comple": 5909,
        "civilisation": 5910,
        "voudrait": 5911,
        "jalou": 5912,
        "réagir": 5913,
        "islamistes": 5914,
        "représentatif": 5915,
        "amb": 5916,
        "grève": 5917,
        "mondial": 5918,
        "coucher": 5919,
        "misation": 5920,
        "jugé": 5921,
        "circulation": 5922,
        "36": 5923,
        "déconner": 5924,
        "adhé": 5925,
        "performan": 5926,
        "bloqué": 5927,
        "assimi": 5928,
        "accompag": 5929,
        "rock": 5930,
        "fasciste": 5931,
        "finissent": 5932,
        "officielle": 5933,
        "asie": 5934,
        "collabor": 5935,
        "systeme": 5936,
        "favorable": 5937,
        "campagnes": 5938,
        "aspects": 5939,
        "fid": 5940,
        "gt": 5941,
        "parado": 5942,
        "hur": 5943,
        "reportage": 5944,
        "see": 5945,
        "tini": 5946,
        "remise": 5947,
        "ell": 5948,
        "gné": 5949,
        "got": 5950,
        "agression": 5951,
        "lard": 5952,
        "juillet": 5953,
        "actifs": 5954,
        "hérit": 5955,
        "alternatives": 5956,
        "sha": 5957,
        "rand": 5958,
        "fiscal": 5959,
        "ciels": 5960,
        "suivent": 5961,
        "légalement": 5962,
        "blu": 5963,
        "commencent": 5964,
        "utilisés": 5965,
        "ramener": 5966,
        "27": 5967,
        "musulmane": 5968,
        "pédia": 5969,
        "perds": 5970,
        "flex": 5971,
        "remplir": 5972,
        "élites": 5973,
        "soumis": 5974,
        "constater": 5975,
        "stéréo": 5976,
        "bd": 5977,
        "culé": 5978,
        "rejoindre": 5979,
        "vues": 5980,
        "écras": 5981,
        "reviens": 5982,
        "posés": 5983,
        "bizarrement": 5984,
        "rencontrer": 5985,
        "conflits": 5986,
        "boulan": 5987,
        "dimen": 5988,
        "civ": 5989,
        "vache": 5990,
        "assume": 5991,
        "connexion": 5992,
        "cesse": 5993,
        "soutenu": 5994,
        "sûre": 5995,
        "inver": 5996,
        "cn": 5997,
        "protest": 5998,
        "pét": 5999,
        "particuliers": 6000,
        "extreme": 6001,
        "directeur": 6002,
        "rati": 6003,
        "montag": 6004,
        "tenus": 6005,
        "ennemis": 6006,
        "conduire": 6007,
        "problématique": 6008,
        "ismes": 6009,
        "unité": 6010,
        "permanence": 6011,
        "maître": 6012,
        "itement": 6013,
        "dynamique": 6014,
        "manifestants": 6015,
        "vêtement": 6016,
        "succes": 6017,
        "persuadé": 6018,
        "prénom": 6019,
        "contente": 6020,
        "milieux": 6021,
        "solide": 6022,
        "cryp": 6023,
        "intégré": 6024,
        "cracher": 6025,
        "android": 6026,
        "stp": 6027,
        "arabie": 6028,
        "cisme": 6029,
        "exprimé": 6030,
        "caution": 6031,
        "mensonge": 6032,
        "références": 6033,
        "hypocrite": 6034,
        "inventé": 6035,
        "lambda": 6036,
        "contradic": 6037,
        "convient": 6038,
        "cage": 6039,
        "importantes": 6040,
        "gv": 6041,
        "space": 6042,
        "gratuitement": 6043,
        "digne": 6044,
        "discipl": 6045,
        "restre": 6046,
        "god": 6047,
        "diminuer": 6048,
        "présenté": 6049,
        "spécial": 6050,
        "représentants": 6051,
        "éclai": 6052,
        "théories": 6053,
        "pédop": 6054,
        "2002": 6055,
        "oué": 6056,
        "privés": 6057,
        "gers": 6058,
        "électricité": 6059,
        "tweet": 6060,
        "inture": 6061,
        "génétique": 6062,
        "billet": 6063,
        "crets": 6064,
        "recommande": 6065,
        "div": 6066,
        "fumer": 6067,
        "partition": 6068,
        "magh": 6069,
        "micros": 6070,
        "bille": 6071,
        "az": 6072,
        "fine": 6073,
        "choquant": 6074,
        "dédu": 6075,
        "arro": 6076,
        "illant": 6077,
        "corré": 6078,
        "pion": 6079,
        "excep": 6080,
        "sucre": 6081,
        "bénéfices": 6082,
        "plas": 6083,
        "colonisation": 6084,
        "héros": 6085,
        "refusent": 6086,
        "existant": 6087,
        "péni": 6088,
        "brés": 6089,
        "pcf": 6090,
        "cost": 6091,
        "ressort": 6092,
        "station": 6093,
        "49": 6094,
        "meet": 6095,
        "expériment": 6096,
        "négocier": 6097,
        "lax": 6098,
        "pel": 6099,
        "pratiquement": 6100,
        "élite": 6101,
        "islamopho": 6102,
        "grossi": 6103,
        "féministe": 6104,
        "modos": 6105,
        "dl": 6106,
        "compren": 6107,
        "perspective": 6108,
        "entrain": 6109,
        "déca": 6110,
        "vus": 6111,
        "wat": 6112,
        "ware": 6113,
        "prouvé": 6114,
        "tonnes": 6115,
        "experts": 6116,
        "vieil": 6117,
        "céré": 6118,
        "vations": 6119,
        "thétique": 6120,
        "hôpital": 6121,
        "domination": 6122,
        "consé": 6123,
        "michel": 6124,
        "promo": 6125,
        "minim": 6126,
        "lash": 6127,
        "appareil": 6128,
        "permettant": 6129,
        "cheval": 6130,
        "élève": 6131,
        "actuels": 6132,
        "active": 6133,
        "portu": 6134,
        "châ": 6135,
        "ciation": 6136,
        "mér": 6137,
        "rhétorique": 6138,
        "numérique": 6139,
        "apprentissage": 6140,
        "charbon": 6141,
        "bombar": 6142,
        "var": 6143,
        "autru": 6144,
        "pides": 6145,
        "flix": 6146,
        "conception": 6147,
        "basse": 6148,
        "partent": 6149,
        "combattre": 6150,
        "pouvant": 6151,
        "pharma": 6152,
        "spectacle": 6153,
        "longueur": 6154,
        "lateur": 6155,
        "galère": 6156,
        "nécessaires": 6157,
        "28": 6158,
        "flux": 6159,
        "repose": 6160,
        "réunion": 6161,
        "postu": 6162,
        "fascisme": 6163,
        "parfaite": 6164,
        "résume": 6165,
        "jolie": 6166,
        "paient": 6167,
        "uu": 6168,
        "nice": 6169,
        "bourré": 6170,
        "queue": 6171,
        "euses": 6172,
        "nope": 6173,
        "laissent": 6174,
        "hey": 6175,
        "coloni": 6176,
        "noté": 6177,
        "symp": 6178,
        "vez": 6179,
        "occidentaux": 6180,
        "tile": 6181,
        "affiche": 6182,
        "ôles": 6183,
        "rattra": 6184,
        "légumes": 6185,
        "documents": 6186,
        "chante": 6187,
        "structures": 6188,
        "dex": 6189,
        "étonnerait": 6190,
        "croix": 6191,
        "financiers": 6192,
        "vole": 6193,
        "remarques": 6194,
        "disposition": 6195,
        "dures": 6196,
        "inten": 6197,
        "polémique": 6198,
        "hing": 6199,
        "sold": 6200,
        "chats": 6201,
        "erie": 6202,
        "mené": 6203,
        "iv": 6204,
        "malhonnête": 6205,
        "gagnent": 6206,
        "cile": 6207,
        "apparten": 6208,
        "valor": 6209,
        "ouille": 6210,
        "apprends": 6211,
        "lundi": 6212,
        "particulière": 6213,
        "netflix": 6214,
        "lots": 6215,
        "copie": 6216,
        "arra": 6217,
        "rond": 6218,
        "mmaire": 6219,
        "dispo": 6220,
        "cétait": 6221,
        "lages": 6222,
        "riences": 6223,
        "enlever": 6224,
        "retire": 6225,
        "utilisée": 6226,
        "modéra": 6227,
        "supérieure": 6228,
        "chy": 6229,
        "démar": 6230,
        "quoique": 6231,
        "légèrement": 6232,
        "attirer": 6233,
        "louse": 6234,
        "subtil": 6235,
        "ottes": 6236,
        "miner": 6237,
        "brux": 6238,
        "sives": 6239,
        "joins": 6240,
        "rassur": 6241,
        "événements": 6242,
        "avé": 6243,
        "bienvenue": 6244,
        "paragraphe": 6245,
        "madame": 6246,
        "financière": 6247,
        "gamme": 6248,
        "pourcentage": 6249,
        "payent": 6250,
        "simpl": 6251,
        "riens": 6252,
        "rapporte": 6253,
        "yé": 6254,
        "vocation": 6255,
        "entourage": 6256,
        "île": 6257,
        "gain": 6258,
        "expériences": 6259,
        "conséquent": 6260,
        "rues": 6261,
        "fiant": 6262,
        "orientation": 6263,
        "lâcher": 6264,
        "made": 6265,
        "recette": 6266,
        "avortement": 6267,
        "subst": 6268,
        "enlève": 6269,
        "soft": 6270,
        "communautés": 6271,
        "essentiellement": 6272,
        "ei": 6273,
        "eg": 6274,
        "wikipédia": 6275,
        "èche": 6276,
        "chaine": 6277,
        "rêver": 6278,
        "subvention": 6279,
        "vies": 6280,
        "2010": 6281,
        "vau": 6282,
        "irai": 6283,
        "ignore": 6284,
        "bidon": 6285,
        "parisienne": 6286,
        "mediapart": 6287,
        "netto": 6288,
        "emmerde": 6289,
        "than": 6290,
        "conclusions": 6291,
        "attente": 6292,
        "historiques": 6293,
        "excellente": 6294,
        "ignorance": 6295,
        "subventions": 6296,
        "dépense": 6297,
        "tissement": 6298,
        "compétent": 6299,
        "puni": 6300,
        "ukraine": 6301,
        "diverses": 6302,
        "officiellement": 6303,
        "ousse": 6304,
        "explications": 6305,
        "allemande": 6306,
        "tic": 6307,
        "pelle": 6308,
        "oport": 6309,
        "israel": 6310,
        "logne": 6311,
        "diens": 6312,
        "lade": 6313,
        "ouvertement": 6314,
        "poutou": 6315,
        "consommer": 6316,
        "adultes": 6317,
        "jugés": 6318,
        "alt": 6319,
        "saoudite": 6320,
        "ador": 6321,
        "dira": 6322,
        "soldats": 6323,
        "ister": 6324,
        "maroc": 6325,
        "laient": 6326,
        "emment": 6327,
        "poly": 6328,
        "historiquement": 6329,
        "utilises": 6330,
        "journalisme": 6331,
        "actuelles": 6332,
        "démon": 6333,
        "alsa": 6334,
        "condescend": 6335,
        "circons": 6336,
        "intentions": 6337,
        "world": 6338,
        "intellectuel": 6339,
        "stagi": 6340,
        "samedi": 6341,
        "hallucin": 6342,
        "ût": 6343,
        "professionnel": 6344,
        "réglement": 6345,
        "relati": 6346,
        "huile": 6347,
        "fibre": 6348,
        "astre": 6349,
        "tho": 6350,
        "désagré": 6351,
        "lap": 6352,
        "corrigé": 6353,
        "soupçon": 6354,
        "consommateurs": 6355,
        "phase": 6356,
        "conduit": 6357,
        "may": 6358,
        "proposent": 6359,
        "islamique": 6360,
        "joie": 6361,
        "réserve": 6362,
        "lycé": 6363,
        "meurtre": 6364,
        "complo": 6365,
        "supprimé": 6366,
        "avril": 6367,
        "foc": 6368,
        "accéder": 6369,
        "squ": 6370,
        "sexiste": 6371,
        "fausses": 6372,
        "hip": 6373,
        "prête": 6374,
        "véhicule": 6375,
        "qualifier": 6376,
        "mad": 6377,
        "patient": 6378,
        "ogm": 6379,
        "promesses": 6380,
        "hétéro": 6381,
        "encontre": 6382,
        "visite": 6383,
        "épisodes": 6384,
        "branche": 6385,
        "hahaha": 6386,
        "infini": 6387,
        "profond": 6388,
        "initiative": 6389,
        "compenser": 6390,
        "encourager": 6391,
        "critère": 6392,
        "mitisme": 6393,
        "déchets": 6394,
        "riz": 6395,
        "écologique": 6396,
        "spécifiquement": 6397,
        "naturelle": 6398,
        "économiquement": 6399,
        "sensation": 6400,
        "ule": 6401,
        "intéressantes": 6402,
        "gueuler": 6403,
        "chefs": 6404,
        "diffus": 6405,
        "pile": 6406,
        "alliés": 6407,
        "messagecompose": 6408,
        "utilisant": 6409,
        "quête": 6410,
        "offres": 6411,
        "rendez": 6412,
        "réd": 6413,
        "devais": 6414,
        "juin": 6415,
        "complément": 6416,
        "regardant": 6417,
        "boucle": 6418,
        "évè": 6419,
        "obligés": 6420,
        "cket": 6421,
        "fachos": 6422,
        "chons": 6423,
        "biliser": 6424,
        "traduit": 6425,
        "couteau": 6426,
        "ême": 6427,
        "calement": 6428,
        "médit": 6429,
        "agence": 6430,
        "luxe": 6431,
        "héritage": 6432,
        "sky": 6433,
        "cadeau": 6434,
        "restera": 6435,
        "laris": 6436,
        "ologie": 6437,
        "hauteur": 6438,
        "logements": 6439,
        "bibli": 6440,
        "caricatur": 6441,
        "accuser": 6442,
        "effon": 6443,
        "majeur": 6444,
        "dialogue": 6445,
        "fondamentalement": 6446,
        "fos": 6447,
        "difficultés": 6448,
        "esclavage": 6449,
        "profondément": 6450,
        "bouteille": 6451,
        "rin": 6452,
        "facilité": 6453,
        "richesses": 6454,
        "embauche": 6455,
        "expul": 6456,
        "ingénieurs": 6457,
        "bossent": 6458,
        "gus": 6459,
        "mr": 6460,
        "témoig": 6461,
        "magasin": 6462,
        "professionnelle": 6463,
        "confonds": 6464,
        "publicité": 6465,
        "rejoins": 6466,
        "lecteur": 6467,
        "cote": 6468,
        "béco": 6469,
        "incon": 6470,
        "chouette": 6471,
        "ud": 6472,
        "plau": 6473,
        "ee": 6474,
        "imité": 6475,
        "mythe": 6476,
        "venez": 6477,
        "élevés": 6478,
        "neuf": 6479,
        "bordeaux": 6480,
        "bfm": 6481,
        "jer": 6482,
        "cana": 6483,
        "déses": 6484,
        "pointer": 6485,
        "foule": 6486,
        "plon": 6487,
        "aimerai": 6488,
        "forts": 6489,
        "discute": 6490,
        "réci": 6491,
        "tortotes": 6492,
        "tortotesmessenger": 6493,
        "ament": 6494,
        "similaires": 6495,
        "sibles": 6496,
        "binet": 6497,
        "alco": 6498,
        "wa": 6499,
        "couvert": 6500,
        "tibles": 6501,
        "pp": 6502,
        "pognon": 6503,
        "renon": 6504,
        "affirmation": 6505,
        "iers": 6506,
        "embar": 6507,
        "2011": 6508,
        "mitter": 6509,
        "documentaire": 6510,
        "ile": 6511,
        "doctor": 6512,
        "décris": 6513,
        "concret": 6514,
        "étudier": 6515,
        "ally": 6516,
        "déja": 6517,
        "downvoter": 6518,
        "mienne": 6519,
        "précisé": 6520,
        "gauchistes": 6521,
        "stress": 6522,
        "proto": 6523,
        "positifs": 6524,
        "cd": 6525,
        "alimentaire": 6526,
        "copains": 6527,
        "majoritaire": 6528,
        "trafic": 6529,
        "réchauffement": 6530,
        "catastrophe": 6531,
        "video": 6532,
        "kin": 6533,
        "dier": 6534,
        "baguette": 6535,
        "catégories": 6536,
        "mâ": 6537,
        "global": 6538,
        "continent": 6539,
        "spoi": 6540,
        "événement": 6541,
        "hélas": 6542,
        "dépenser": 6543,
        "constate": 6544,
        "sortis": 6545,
        "destruction": 6546,
        "masculin": 6547,
        "résistance": 6548,
        "thèses": 6549,
        "appartient": 6550,
        "québéco": 6551,
        "sms": 6552,
        "grant": 6553,
        "allons": 6554,
        "intervenir": 6555,
        "ject": 6556,
        "caché": 6557,
        "poig": 6558,
        "courte": 6559,
        "fenêtre": 6560,
        "descendre": 6561,
        "oreille": 6562,
        "sérieuse": 6563,
        "origines": 6564,
        "anisme": 6565,
        "gêne": 6566,
        "publié": 6567,
        "moque": 6568,
        "antici": 6569,
        "canal": 6570,
        "palestini": 6571,
        "circonstances": 6572,
        "argumenter": 6573,
        "renseignement": 6574,
        "pir": 6575,
        "possède": 6576,
        "batterie": 6577,
        "équilib": 6578,
        "oise": 6579,
        "participation": 6580,
        "piste": 6581,
        "locales": 6582,
        "investissements": 6583,
        "empi": 6584,
        "hs": 6585,
        "had": 6586,
        "radical": 6587,
        "tord": 6588,
        "gro": 6589,
        "survie": 6590,
        "anar": 6591,
        "douter": 6592,
        "viendrait": 6593,
        "stéri": 6594,
        "atlan": 6595,
        "cliché": 6596,
        "dossiers": 6597,
        "anni": 6598,
        "camb": 6599,
        "bruxelles": 6600,
        "spécu": 6601,
        "positive": 6602,
        "indispens": 6603,
        "formations": 6604,
        "lala": 6605,
        "frères": 6606,
        "çpt": 6607,
        "nei": 6608,
        "grammaire": 6609,
        "tranquil": 6610,
        "tele": 6611,
        "choqué": 6612,
        "louis": 6613,
        "fleur": 6614,
        "participe": 6615,
        "scrutin": 6616,
        "cateur": 6617,
        "séparation": 6618,
        "2h": 6619,
        "totalité": 6620,
        "austé": 6621,
        "facon": 6622,
        "instrument": 6623,
        "dation": 6624,
        "banlieues": 6625,
        "grosso": 6626,
        "vaccin": 6627,
        "étonné": 6628,
        "atti": 6629,
        "déplacer": 6630,
        "démontrer": 6631,
        "pause": 6632,
        "fondé": 6633,
        "fruits": 6634,
        "atoires": 6635,
        "magie": 6636,
        "poubelle": 6637,
        "ey": 6638,
        "côte": 6639,
        "supportable": 6640,
        "empe": 6641,
        "humaines": 6642,
        "considèrent": 6643,
        "déclarations": 6644,
        "ien": 6645,
        "tables": 6646,
        "nove": 6647,
        "gout": 6648,
        "commercial": 6649,
        "section": 6650,
        "med": 6651,
        "sf": 6652,
        "proximité": 6653,
        "crever": 6654,
        "ministres": 6655,
        "geste": 6656,
        "porc": 6657,
        "surprenant": 6658,
        "ald": 6659,
        "ries": 6660,
        "tf1": 6661,
        "ao": 6662,
        "souveraineté": 6663,
        "condamner": 6664,
        "access": 6665,
        "contraintes": 6666,
        "formule": 6667,
        "concepts": 6668,
        "options": 6669,
        "cense": 6670,
        "transformer": 6671,
        "pensait": 6672,
        "enter": 6673,
        "agé": 6674,
        "idiots": 6675,
        "key": 6676,
        "porno": 6677,
        "prot": 6678,
        "stabil": 6679,
        "désin": 6680,
        "jos": 6681,
        "reprend": 6682,
        "personnelles": 6683,
        "survivre": 6684,
        "mondialisation": 6685,
        "procu": 6686,
        "cçpt": 6687,
        "amusant": 6688,
        "douce": 6689,
        "lille": 6690,
        "admet": 6691,
        "who": 6692,
        "abs": 6693,
        "ouvrier": 6694,
        "spoiler": 6695,
        "tribue": 6696,
        "diag": 6697,
        "cines": 6698,
        "correcte": 6699,
        "casque": 6700,
        "pétition": 6701,
        "smartphone": 6702,
        "consac": 6703,
        "dêtre": 6704,
        "typique": 6705,
        "taxer": 6706,
        "arf": 6707,
        "ôme": 6708,
        "soph": 6709,
        "intr": 6710,
        "capacités": 6711,
        "complé": 6712,
        "aud": 6713,
        "subir": 6714,
        "agents": 6715,
        "giques": 6716,
        "amuse": 6717,
        "tiend": 6718,
        "talent": 6719,
        "équipes": 6720,
        "600": 6721,
        "suède": 6722,
        "boulanger": 6723,
        "naïf": 6724,
        "bloque": 6725,
        "amener": 6726,
        "opposer": 6727,
        "méluche": 6728,
        "vaguement": 6729,
        "flo": 6730,
        "amie": 6731,
        "licenci": 6732,
        "siège": 6733,
        "spécialiste": 6734,
        "risquer": 6735,
        "jardin": 6736,
        "tempéra": 6737,
        "présidentielles": 6738,
        "otte": 6739,
        "cigare": 6740,
        "psychi": 6741,
        "prévenir": 6742,
        "asso": 6743,
        "pari": 6744,
        "organisé": 6745,
        "ciens": 6746,
        "bible": 6747,
        "autorités": 6748,
        "transpar": 6749,
        "emmerder": 6750,
        "neutr": 6751,
        "abrutis": 6752,
        "impots": 6753,
        "abonnement": 6754,
        "recettes": 6755,
        "exprime": 6756,
        "hac": 6757,
        "habitudes": 6758,
        "latin": 6759,
        "margin": 6760,
        "christi": 6761,
        "suppression": 6762,
        "clés": 6763,
        "aignent": 6764,
        "liers": 6765,
        "logiciels": 6766,
        "disparaître": 6767,
        "plage": 6768,
        "électronique": 6769,
        "fans": 6770,
        "sym": 6771,
        "ax": 6772,
        "wifi": 6773,
        "mago": 6774,
        "représentant": 6775,
        "têtes": 6776,
        "foncer": 6777,
        "courses": 6778,
        "raci": 6779,
        "immobilier": 6780,
        "classement": 6781,
        "horaires": 6782,
        "meuf": 6783,
        "popularité": 6784,
        "renvoy": 6785,
        "iphone": 6786,
        "pm": 6787,
        "universités": 6788,
        "cts": 6789,
        "exter": 6790,
        "jobs": 6791,
        "vendent": 6792,
        "sable": 6793,
        "douleur": 6794,
        "rages": 6795,
        "manifestations": 6796,
        "provoquer": 6797,
        "moin": 6798,
        "sensé": 6799,
        "steam": 6800,
        "anecdote": 6801,
        "paire": 6802,
        "ople": 6803,
        "oirs": 6804,
        "difficiles": 6805,
        "disque": 6806,
        "fuite": 6807,
        "embaucher": 6808,
        "relis": 6809,
        "contour": 6810,
        "primés": 6811,
        "modifier": 6812,
        "toussa": 6813,
        "mince": 6814,
        "atar": 6815,
        "fake": 6816,
        "émer": 6817,
        "semblerait": 6818,
        "joint": 6819,
        "dimension": 6820,
        "moyennes": 6821,
        "microsoft": 6822,
        "billets": 6823,
        "finie": 6824,
        "supporte": 6825,
        "tit": 6826,
        "morceaux": 6827,
        "okay": 6828,
        "jacques": 6829,
        "seuil": 6830,
        "chaînes": 6831,
        "memes": 6832,
        "fins": 6833,
        "nette": 6834,
        "reconnaissance": 6835,
        "inventer": 6836,
        "déclaré": 6837,
        "tueux": 6838,
        "civils": 6839,
        "remplacement": 6840,
        "marques": 6841,
        "hom": 6842,
        "débarras": 6843,
        "routes": 6844,
        "suscep": 6845,
        "inutiles": 6846,
        "différe": 6847,
        "fragi": 6848,
        "lingu": 6849,
        "regrette": 6850,
        "productivité": 6851,
        "fichier": 6852,
        "opposants": 6853,
        "austérité": 6854,
        "échanges": 6855,
        "témoignage": 6856,
        "jette": 6857,
        "géno": 6858,
        "serveurs": 6859,
        "équival": 6860,
        "remplace": 6861,
        "symbolique": 6862,
        "mee": 6863,
        "différemment": 6864,
        "souffrance": 6865,
        "iens": 6866,
        "gauchiste": 6867,
        "appellent": 6868,
        "homosexuels": 6869,
        "oud": 6870,
        "retrouvent": 6871,
        "formés": 6872,
        "experi": 6873,
        "objets": 6874,
        "informer": 6875,
        "oreilles": 6876,
        "gènes": 6877,
        "remonte": 6878,
        "co2": 6879,
        "trouveras": 6880,
        "africains": 6881,
        "libération": 6882,
        "aveugle": 6883,
        "virtu": 6884,
        "bateau": 6885,
        "extension": 6886,
        "repon": 6887,
        "évoluer": 6888,
        "dirai": 6889,
        "conserver": 6890,
        "intéri": 6891,
        "dieux": 6892,
        "lante": 6893,
        "çait": 6894,
        "polon": 6895,
        "ory": 6896,
        "excuser": 6897,
        "responsabilités": 6898,
        "partagé": 6899,
        "quais": 6900,
        "toulouse": 6901,
        "gagnant": 6902,
        "rose": 6903,
        "imposé": 6904,
        "remis": 6905,
        "tillon": 6906,
        "parano": 6907,
        "montage": 6908,
        "technologies": 6909,
        "possibilités": 6910,
        "here": 6911,
        "systématique": 6912,
        "recomman": 6913,
        "signa": 6914,
        "contradiction": 6915,
        "trains": 6916,
        "secré": 6917,
        "finan": 6918,
        "gences": 6919,
        "spir": 6920,
        "justifié": 6921,
        "argumentaire": 6922,
        "menaces": 6923,
        "curiosité": 6924,
        "supplémentaire": 6925,
        "australie": 6926,
        "chargé": 6927,
        "embour": 6928,
        "bler": 6929,
        "prochaines": 6930,
        "pédag": 6931,
        "crème": 6932,
        "remercie": 6933,
        "26": 6934,
        "more": 6935,
        "iquement": 6936,
        "héber": 6937,
        "sché": 6938,
        "vieilles": 6939,
        "pensant": 6940,
        "conspiration": 6941,
        "publier": 6942,
        "report": 6943,
        "actionnaires": 6944,
        "rupture": 6945,
        "onu": 6946,
        "pue": 6947,
        "mètres": 6948,
        "vaste": 6949,
        "manifs": 6950,
        "certi": 6951,
        "indice": 6952,
        "financé": 6953,
        "issus": 6954,
        "refer": 6955,
        "demandais": 6956,
        "logues": 6957,
        "soin": 6958,
        "89": 6959,
        "goûts": 6960,
        "guille": 6961,
        "taient": 6962,
        "jun": 6963,
        "tages": 6964,
        "vel": 6965,
        "solidar": 6966,
        "couples": 6967,
        "certitude": 6968,
        "fiction": 6969,
        "commenter": 6970,
        "masses": 6971,
        "aéroport": 6972,
        "préfères": 6973,
        "analyses": 6974,
        "trau": 6975,
        "chage": 6976,
        "uil": 6977,
        "fonctions": 6978,
        "soins": 6979,
        "correction": 6980,
        "répartition": 6981,
        "vivement": 6982,
        "compétition": 6983,
        "homosexualité": 6984,
        "abu": 6985,
        "préser": 6986,
        "secondaire": 6987,
        "belge": 6988,
        "droi": 6989,
        "paul": 6990,
        "manquer": 6991,
        "conduite": 6992,
        "ket": 6993,
        "gour": 6994,
        "irlande": 6995,
        "guy": 6996,
        "hâ": 6997,
        "novembre": 6998,
        "suivante": 6999,
        "défauts": 7000,
        "continuent": 7001,
        "chomage": 7002,
        "zem": 7003,
        "chrétien": 7004,
        "démago": 7005,
        "saucis": 7006,
        "bombe": 7007,
        "préférence": 7008,
        "énormes": 7009,
        "méritent": 7010,
        "crédibilité": 7011,
        "citement": 7012,
        "cassé": 7013,
        "détri": 7014,
        "description": 7015,
        "saurais": 7016,
        "cohérence": 7017,
        "artistes": 7018,
        "jav": 7019,
        "illusion": 7020,
        "conc": 7021,
        "pourrie": 7022,
        "énerve": 7023,
        "dénonce": 7024,
        "conviction": 7025,
        "nana": 7026,
        "ash": 7027,
        "contrôles": 7028,
        "cellu": 7029,
        "people": 7030,
        "reprise": 7031,
        "mails": 7032,
        "réalisé": 7033,
        "intéressent": 7034,
        "right": 7035,
        "kel": 7036,
        "nin": 7037,
        "estimer": 7038,
        "tination": 7039,
        "camion": 7040,
        "fb": 7041,
        "immeuble": 7042,
        "coun": 7043,
        "pais": 7044,
        "stig": 7045,
        "choisit": 7046,
        "liée": 7047,
        "religieuses": 7048,
        "démocrate": 7049,
        "biblio": 7050,
        "agriculteurs": 7051,
        "concert": 7052,
        "rigoler": 7053,
        "injuste": 7054,
        "politicien": 7055,
        "data": 7056,
        "identifier": 7057,
        "napolé": 7058,
        "pus": 7059,
        "souris": 7060,
        "décrire": 7061,
        "soyons": 7062,
        "collectif": 7063,
        "retraites": 7064,
        "professionnels": 7065,
        "lau": 7066,
        "tensions": 7067,
        "initial": 7068,
        "tableau": 7069,
        "centres": 7070,
        "quon": 7071,
        "doux": 7072,
        "résidence": 7073,
        "justification": 7074,
        "morceau": 7075,
        "contenter": 7076,
        "fonctionnaire": 7077,
        "engagement": 7078,
        "gil": 7079,
        "monétaire": 7080,
        "tat": 7081,
        "courants": 7082,
        "contents": 7083,
        "mex": 7084,
        "cout": 7085,
        "crier": 7086,
        "pitié": 7087,
        "copier": 7088,
        "they": 7089,
        "condamnation": 7090,
        "apl": 7091,
        "secteurs": 7092,
        "pologne": 7093,
        "carbon": 7094,
        "ouilles": 7095,
        "nico": 7096,
        "révol": 7097,
        "napoléon": 7098,
        "gnages": 7099,
        "accélé": 7100,
        "ip": 7101,
        "mangé": 7102,
        "design": 7103,
        "press": 7104,
        "sovi": 7105,
        "nourrir": 7106,
        "mentale": 7107,
        "habitation": 7108,
        "hauts": 7109,
        "baise": 7110,
        "manifester": 7111,
        "wn": 7112,
        "terri": 7113,
        "finale": 7114,
        "catholiques": 7115,
        "antisémitisme": 7116,
        "quitté": 7117,
        "rigole": 7118,
        "restant": 7119,
        "récol": 7120,
        "agressif": 7121,
        "augmenté": 7122,
        "handica": 7123,
        "mesur": 7124,
        "obé": 7125,
        "rece": 7126,
        "leçon": 7127,
        "voyais": 7128,
        "maladies": 7129,
        "ech": 7130,
        "lion": 7131,
        "exceptions": 7132,
        "dri": 7133,
        "volé": 7134,
        "costu": 7135,
        "principaux": 7136,
        "contres": 7137,
        "aly": 7138,
        "rétro": 7139,
        "maîtrise": 7140,
        "sympas": 7141,
        "dégâ": 7142,
        "appuyer": 7143,
        "pleur": 7144,
        "québécois": 7145,
        "sociologie": 7146,
        "dépasser": 7147,
        "contient": 7148,
        "piscine": 7149,
        "interventions": 7150,
        "conférence": 7151,
        "malheureux": 7152,
        "préc": 7153,
        "longues": 7154,
        "combin": 7155,
        "inférieur": 7156,
        "33": 7157,
        "disponibles": 7158,
        "tendre": 7159,
        "zemmour": 7160,
        "propriétaires": 7161,
        "polit": 7162,
        "vérifie": 7163,
        "tache": 7164,
        "boules": 7165,
        "utop": 7166,
        "merdes": 7167,
        "froide": 7168,
        "get": 7169,
        "lunettes": 7170,
        "violents": 7171,
        "pêche": 7172,
        "favoriser": 7173,
        "tgv": 7174,
        "solidarité": 7175,
        "rationnel": 7176,
        "israé": 7177,
        "donnant": 7178,
        "champion": 7179,
        "ful": 7180,
        "constamment": 7181,
        "amuser": 7182,
        "anony": 7183,
        "fana": 7184,
        "pore": 7185,
        "physiques": 7186,
        "intes": 7187,
        "légaux": 7188,
        "francophone": 7189,
        "faille": 7190,
        "mensonges": 7191,
        "teaux": 7192,
        "caméra": 7193,
        "gardé": 7194,
        "eng": 7195,
        "plateforme": 7196,
        "ster": 7197,
        "obtenu": 7198,
        "britannique": 7199,
        "donald": 7200,
        "infra": 7201,
        "pluie": 7202,
        "fréqu": 7203,
        "fesses": 7204,
        "crs": 7205,
        "plai": 7206,
        "proprement": 7207,
        "passages": 7208,
        "som": 7209,
        "garçons": 7210,
        "cherchais": 7211,
        "issue": 7212,
        "permettrait": 7213,
        "relou": 7214,
        "bouton": 7215,
        "cins": 7216,
        "étrangères": 7217,
        "autrui": 7218,
        "avor": 7219,
        "accidents": 7220,
        "votants": 7221,
        "42": 7222,
        "3d": 7223,
        "sivité": 7224,
        "anonyme": 7225,
        "répan": 7226,
        "prononcer": 7227,
        "nante": 7228,
        "recu": 7229,
        "gris": 7230,
        "codes": 7231,
        "filtre": 7232,
        "laté": 7233,
        "présentation": 7234,
        "sorties": 7235,
        "facho": 7236,
        "résumer": 7237,
        "pizz": 7238,
        "rante": 7239,
        "exploser": 7240,
        "économistes": 7241,
        "écouté": 7242,
        "verbe": 7243,
        "souligner": 7244,
        "eco": 7245,
        "tiser": 7246,
        "débit": 7247,
        "brou": 7248,
        "dements": 7249,
        "létat": 7250,
        "effac": 7251,
        "promotion": 7252,
        "objectivement": 7253,
        "redditeurs": 7254,
        "sommeil": 7255,
        "ataire": 7256,
        "croyance": 7257,
        "espérant": 7258,
        "négociation": 7259,
        "témoignages": 7260,
        "dollars": 7261,
        "tâche": 7262,
        "regardez": 7263,
        "amou": 7264,
        "récente": 7265,
        "meeting": 7266,
        "engager": 7267,
        "kur": 7268,
        "appels": 7269,
        "américaines": 7270,
        "rav": 7271,
        "faisable": 7272,
        "sfr": 7273,
        "jaune": 7274,
        "finances": 7275,
        "enfance": 7276,
        "chapeau": 7277,
        "corse": 7278,
        "800": 7279,
        "tranche": 7280,
        "sév": 7281,
        "2005": 7282,
        "violente": 7283,
        "recrutement": 7284,
        "ctives": 7285,
        "consommateur": 7286,
        "profitent": 7287,
        "payant": 7288,
        "transfer": 7289,
        "trompé": 7290,
        "immigré": 7291,
        "parcequ": 7292,
        "trous": 7293,
        "éditori": 7294,
        "luxembour": 7295,
        "colis": 7296,
        "prés": 7297,
        "etant": 7298,
        "promet": 7299,
        "autorisé": 7300,
        "bies": 7301,
        "briga": 7302,
        "jospin": 7303,
        "obje": 7304,
        "ney": 7305,
        "soupe": 7306,
        "nationaux": 7307,
        "yes": 7308,
        "inconnu": 7309,
        "rele": 7310,
        "maitr": 7311,
        "interlocuteur": 7312,
        "blon": 7313,
        "quart": 7314,
        "socialement": 7315,
        "compagne": 7316,
        "abandonner": 7317,
        "humili": 7318,
        "selection": 7319,
        "matisation": 7320,
        "sdf": 7321,
        "geek": 7322,
        "érences": 7323,
        "bisou": 7324,
        "wtf": 7325,
        "doucement": 7326,
        "matières": 7327,
        "affirme": 7328,
        "ésus": 7329,
        "branle": 7330,
        "parlementaires": 7331,
        "insoumis": 7332,
        "facture": 7333,
        "forfait": 7334,
        "dégu": 7335,
        "aupar": 7336,
        "auparavant": 7337,
        "dienne": 7338,
        "foli": 7339,
        "rassurer": 7340,
        "occupation": 7341,
        "perpé": 7342,
        "profondeur": 7343,
        "bain": 7344,
        "discutable": 7345,
        "grandi": 7346,
        "tisé": 7347,
        "exclusivement": 7348,
        "opérations": 7349,
        "leçons": 7350,
        "day": 7351,
        "débrou": 7352,
        "sédu": 7353,
        "réfléchis": 7354,
        "hiérarchie": 7355,
        "volume": 7356,
        "salaf": 7357,
        "neige": 7358,
        "like": 7359,
        "bobo": 7360,
        "arnaque": 7361,
        "adoré": 7362,
        "contacter": 7363,
        "recommand": 7364,
        "harce": 7365,
        "communs": 7366,
        "fol": 7367,
        "abandonné": 7368,
        "fications": 7369,
        "ageux": 7370,
        "tronche": 7371,
        "mdr": 7372,
        "cycla": 7373,
        "pme": 7374,
        "hori": 7375,
        "mations": 7376,
        "lecteurs": 7377,
        "leak": 7378,
        "adoles": 7379,
        "sun": 7380,
        "détruit": 7381,
        "clichés": 7382,
        "qualifié": 7383,
        "adopter": 7384,
        "réveil": 7385,
        "jésus": 7386,
        "manifestation": 7387,
        "solaire": 7388,
        "scep": 7389,
        "gonf": 7390,
        "agissait": 7391,
        "soeur": 7392,
        "légère": 7393,
        "bagnole": 7394,
        "simpliste": 7395,
        "partant": 7396,
        "morte": 7397,
        "cript": 7398,
        "exces": 7399,
        "prostitution": 7400,
        "cherchant": 7401,
        "verts": 7402,
        "lisent": 7403,
        "découverte": 7404,
        "apprécié": 7405,
        "installé": 7406,
        "thon": 7407,
        "nas": 7408,
        "impéri": 7409,
        "soie": 7410,
        "instau": 7411,
        "disparu": 7412,
        "redditeur": 7413,
        "supposé": 7414,
        "grecs": 7415,
        "arrog": 7416,
        "bron": 7417,
        "découvre": 7418,
        "visiter": 7419,
        "réservé": 7420,
        "retenir": 7421,
        "perception": 7422,
        "usion": 7423,
        "extrémistes": 7424,
        "globale": 7425,
        "couvre": 7426,
        "militant": 7427,
        "étiquette": 7428,
        "gir": 7429,
        "aboli": 7430,
        "camarade": 7431,
        "barrage": 7432,
        "audience": 7433,
        "bâtiment": 7434,
        "fermet": 7435,
        "labo": 7436,
        "ht": 7437,
        "amène": 7438,
        "ptet": 7439,
        "check": 7440,
        "djihadis": 7441,
        "négociations": 7442,
        "pertur": 7443,
        "conclure": 7444,
        "coûter": 7445,
        "your": 7446,
        "taxis": 7447,
        "pistes": 7448,
        "joyeux": 7449,
        "ato": 7450,
        "vêtements": 7451,
        "ads": 7452,
        "biaisé": 7453,
        "lét": 7454,
        "complétement": 7455,
        "bureaux": 7456,
        "reçoit": 7457,
        "prudence": 7458,
        "sénat": 7459,
        "peines": 7460,
        "irais": 7461,
        "coré": 7462,
        "reprises": 7463,
        "manières": 7464,
        "antisémite": 7465,
        "bh": 7466,
        "ith": 7467,
        "bce": 7468,
        "forums": 7469,
        "donnait": 7470,
        "ould": 7471,
        "relire": 7472,
        "edf": 7473,
        "véni": 7474,
        "guigno": 7475,
        "odeur": 7476,
        "plante": 7477,
        "robot": 7478,
        "ll": 7479,
        "infrastructures": 7480,
        "capitale": 7481,
        "médicaments": 7482,
        "feraient": 7483,
        "approuve": 7484,
        "sanctions": 7485,
        "subjectif": 7486,
        "végétari": 7487,
        "culti": 7488,
        "creuser": 7489,
        "anglaise": 7490,
        "manifestement": 7491,
        "motivé": 7492,
        "bénéficier": 7493,
        "robots": 7494,
        "courrier": 7495,
        "impressionnant": 7496,
        "inféri": 7497,
        "maisons": 7498,
        "réuni": 7499,
        "essaient": 7500,
        "fiée": 7501,
        "athée": 7502,
        "zen": 7503,
        "contempor": 7504,
        "fonctionnent": 7505,
        "touches": 7506,
        "amalgame": 7507,
        "liser": 7508,
        "pôle": 7509,
        "joh": 7510,
        "probabilité": 7511,
        "prétendu": 7512,
        "aborder": 7513,
        "marchent": 7514,
        "dieudonné": 7515,
        "méo": 7516,
        "oral": 7517,
        "accusé": 7518,
        "alimentation": 7519,
        "consentement": 7520,
        "labor": 7521,
        "mafi": 7522,
        "bous": 7523,
        "roms": 7524,
        "signes": 7525,
        "graves": 7526,
        "insupportable": 7527,
        "pff": 7528,
        "interessant": 7529,
        "supplémentaires": 7530,
        "plaint": 7531,
        "proprio": 7532,
        "rayon": 7533,
        "regret": 7534,
        "révolutionnaire": 7535,
        "fiscaux": 7536,
        "trême": 7537,
        "bonhomme": 7538,
        "secours": 7539,
        "sand": 7540,
        "admi": 7541,
        "avocats": 7542,
        "courante": 7543,
        "remplacé": 7544,
        "matos": 7545,
        "communiquer": 7546,
        "opportunité": 7547,
        "ambigu": 7548,
        "criminels": 7549,
        "liquide": 7550,
        "lune": 7551,
        "arc": 7552,
        "rouges": 7553,
        "arbitraire": 7554,
        "ramas": 7555,
        "48": 7556,
        "massive": 7557,
        "psychia": 7558,
        "croise": 7559,
        "sales": 7560,
        "intelligents": 7561,
        "flin": 7562,
        "concentration": 7563,
        "couvrir": 7564,
        "démonstr": 7565,
        "fruit": 7566,
        "renforcer": 7567,
        "spirit": 7568,
        "congés": 7569,
        "régimes": 7570,
        "barbar": 7571,
        "appliqué": 7572,
        "bern": 7573,
        "envisage": 7574,
        "accumu": 7575,
        "isf": 7576,
        "aber": 7577,
        "déclarer": 7578,
        "ffer": 7579,
        "perç": 7580,
        "confor": 7581,
        "honnêtes": 7582,
        "uer": 7583,
        "conservateurs": 7584,
        "possé": 7585,
        "pertinente": 7586,
        "bretons": 7587,
        "énergé": 7588,
        "present": 7589,
        "pige": 7590,
        "startu": 7591,
        "coucou": 7592,
        "êter": 7593,
        "chaussures": 7594,
        "ponctu": 7595,
        "atteinte": 7596,
        "normaux": 7597,
        "oligar": 7598,
        "estre": 7599,
        "coco": 7600,
        "paro": 7601,
        "abat": 7602,
        "capitalistes": 7603,
        "bières": 7604,
        "soigner": 7605,
        "lâche": 7606,
        "irré": 7607,
        "défaite": 7608,
        "multination": 7609,
        "définitivement": 7610,
        "trices": 7611,
        "stra": 7612,
        "serie": 7613,
        "espagnol": 7614,
        "shir": 7615,
        "fascistes": 7616,
        "ordinaire": 7617,
        "signal": 7618,
        "conju": 7619,
        "concernés": 7620,
        "valoir": 7621,
        "curité": 7622,
        "arranger": 7623,
        "aujourdhui": 7624,
        "taubi": 7625,
        "louche": 7626,
        "festi": 7627,
        "qi": 7628,
        "appelles": 7629,
        "étoi": 7630,
        "enjeux": 7631,
        "ômes": 7632,
        "agressions": 7633,
        "divi": 7634,
        "éte": 7635,
        "malades": 7636,
        "divor": 7637,
        "incapables": 7638,
        "indispensable": 7639,
        "encad": 7640,
        "magaz": 7641,
        "inclus": 7642,
        "allaient": 7643,
        "plastique": 7644,
        "apport": 7645,
        "chronique": 7646,
        "èges": 7647,
        "foyer": 7648,
        "préjugés": 7649,
        "déta": 7650,
        "slo": 7651,
        "devienne": 7652,
        "saisir": 7653,
        "participé": 7654,
        "garantir": 7655,
        "salon": 7656,
        "tream": 7657,
        "taubira": 7658,
        "philo": 7659,
        "circle": 7660,
        "fortes": 7661,
        "aveug": 7662,
        "irl": 7663,
        "risqué": 7664,
        "industriel": 7665,
        "cast": 7666,
        "constitutionnel": 7667,
        "égard": 7668,
        "centi": 7669,
        "liées": 7670,
        "65": 7671,
        "désastre": 7672,
        "ressortir": 7673,
        "significa": 7674,
        "vaux": 7675,
        "motif": 7676,
        "ventes": 7677,
        "intu": 7678,
        "majeure": 7679,
        "complexes": 7680,
        "espèces": 7681,
        "efficaces": 7682,
        "sexuelles": 7683,
        "boss": 7684,
        "work": 7685,
        "puissants": 7686,
        "édition": 7687,
        "naviga": 7688,
        "flash": 7689,
        "raisonn": 7690,
        "seri": 7691,
        "misé": 7692,
        "clique": 7693,
        "life": 7694,
        "1h": 7695,
        "accessoire": 7696,
        "cgt": 7697,
        "cker": 7698,
        "show": 7699,
        "turer": 7700,
        "pète": 7701,
        "tranquillement": 7702,
        "vérifié": 7703,
        "occupé": 7704,
        "aisons": 7705,
        "oivent": 7706,
        "magasins": 7707,
        "investisseurs": 7708,
        "banquier": 7709,
        "détriment": 7710,
        "férer": 7711,
        "électorale": 7712,
        "curence": 7713,
        "coupé": 7714,
        "festival": 7715,
        "domi": 7716,
        "pension": 7717,
        "autonomie": 7718,
        "télévision": 7719,
        "compétents": 7720,
        "americ": 7721,
        "règlement": 7722,
        "ibilité": 7723,
        "multiples": 7724,
        "viré": 7725,
        "nuis": 7726,
        "habitant": 7727,
        "regardent": 7728,
        "envisager": 7729,
        "panneaux": 7730,
        "fourn": 7731,
        "rejoint": 7732,
        "tention": 7733,
        "pirate": 7734,
        "vpn": 7735,
        "deviens": 7736,
        "tourné": 7737,
        "permets": 7738,
        "coca": 7739,
        "2009": 7740,
        "artiste": 7741,
        "saura": 7742,
        "sauvage": 7743,
        "nbsp": 7744,
        "bêtise": 7745,
        "mination": 7746,
        "trott": 7747,
        "saire": 7748,
        "espion": 7749,
        "payes": 7750,
        "very": 7751,
        "moto": 7752,
        "resto": 7753,
        "sortant": 7754,
        "orienté": 7755,
        "négation": 7756,
        "drogues": 7757,
        "locat": 7758,
        "fal": 7759,
        "location": 7760,
        "défendent": 7761,
        "ror": 7762,
        "cash": 7763,
        "analogie": 7764,
        "matisme": 7765,
        "inti": 7766,
        "féminin": 7767,
        "dividen": 7768,
        "trique": 7769,
        "caisses": 7770,
        "yor": 7771,
        "artifici": 7772,
        "vable": 7773,
        "habitué": 7774,
        "invasion": 7775,
        "dalle": 7776,
        "jeun": 7777,
        "limitée": 7778,
        "prévoir": 7779,
        "dégâts": 7780,
        "réfléchi": 7781,
        "consult": 7782,
        "homéo": 7783,
        "louer": 7784,
        "raccourci": 7785,
        "audio": 7786,
        "faillite": 7787,
        "visions": 7788,
        "jambes": 7789,
        "nucléaires": 7790,
        "mental": 7791,
        "vendeur": 7792,
        "accusations": 7793,
        "lyn": 7794,
        "prépare": 7795,
        "concerné": 7796,
        "consomme": 7797,
        "physiquement": 7798,
        "chrome": 7799,
        "accuse": 7800,
        "email": 7801,
        "notions": 7802,
        "légen": 7803,
        "capitaux": 7804,
        "visibles": 7805,
        "accorder": 7806,
        "mécanique": 7807,
        "glori": 7808,
        "cdd": 7809,
        "vec": 7810,
        "répondais": 7811,
        "ordres": 7812,
        "pensées": 7813,
        "croyances": 7814,
        "edu": 7815,
        "intermédi": 7816,
        "downvoté": 7817,
        "francophones": 7818,
        "arbit": 7819,
        "aï": 7820,
        "rur": 7821,
        "spécifiques": 7822,
        "choper": 7823,
        "diffusion": 7824,
        "tombent": 7825,
        "arte": 7826,
        "virus": 7827,
        "partisan": 7828,
        "statistique": 7829,
        "gif": 7830,
        "marchand": 7831,
        "sli": 7832,
        "exag": 7833,
        "ampleur": 7834,
        "rémunération": 7835,
        "pavé": 7836,
        "yant": 7837,
        "inévit": 7838,
        "philippe": 7839,
        "naze": 7840,
        "métap": 7841,
        "fonce": 7842,
        "saloper": 7843,
        "rétab": 7844,
        "prenait": 7845,
        "corpor": 7846,
        "terres": 7847,
        "autorise": 7848,
        "supermarché": 7849,
        "publiquement": 7850,
        "approprié": 7851,
        "hel": 7852,
        "imagines": 7853,
        "anc": 7854,
        "ètre": 7855,
        "console": 7856,
        "vinci": 7857,
        "torture": 7858,
        "trap": 7859,
        "self": 7860,
        "défendu": 7861,
        "précisions": 7862,
        "riques": 7863,
        "partisans": 7864,
        "producteurs": 7865,
        "pack": 7866,
        "croyants": 7867,
        "upr": 7868,
        "corrélation": 7869,
        "admis": 7870,
        "soutiennent": 7871,
        "illégale": 7872,
        "disparition": 7873,
        "immédi": 7874,
        "panier": 7875,
        "specta": 7876,
        "lète": 7877,
        "tapis": 7878,
        "nuls": 7879,
        "quils": 7880,
        "disaient": 7881,
        "panneau": 7882,
        "médioc": 7883,
        "stabilité": 7884,
        "satisfait": 7885,
        "visa": 7886,
        "basée": 7887,
        "fortune": 7888,
        "mainstream": 7889,
        "bulls": 7890,
        "dépassé": 7891,
        "adversaire": 7892,
        "caf": 7893,
        "boulots": 7894,
        "croisé": 7895,
        "écolo": 7896,
        "devenue": 7897,
        "sué": 7898,
        "inconvéni": 7899,
        "concentrer": 7900,
        "55": 7901,
        "hir": 7902,
        "pass": 7903,
        "siles": 7904,
        "ratio": 7905,
        "douche": 7906,
        "désagréable": 7907,
        "triche": 7908,
        "sj": 7909,
        "décembre": 7910,
        "devaient": 7911,
        "accueillir": 7912,
        "falla": 7913,
        "musée": 7914,
        "nommé": 7915,
        "mangent": 7916,
        "gol": 7917,
        "voyez": 7918,
        "habiter": 7919,
        "gg": 7920,
        "théori": 7921,
        "planter": 7922,
        "collectivité": 7923,
        "islamiste": 7924,
        "décident": 7925,
        "yo": 7926,
        "défavor": 7927,
        "plateau": 7928,
        "pic": 7929,
        "psychologique": 7930,
        "completement": 7931,
        "ault": 7932,
        "transparence": 7933,
        "relative": 7934,
        "jerk": 7935,
        "cia": 7936,
        "paradox": 7937,
        "piège": 7938,
        "espe": 7939,
        "paraître": 7940,
        "istants": 7941,
        "nois": 7942,
        "syndicat": 7943,
        "insin": 7944,
        "absten": 7945,
        "mineur": 7946,
        "bourse": 7947,
        "chap": 7948,
        "retours": 7949,
        "oublies": 7950,
        "indiqué": 7951,
        "32": 7952,
        "oppose": 7953,
        "geor": 7954,
        "comptent": 7955,
        "lisation": 7956,
        "conç": 7957,
        "sket": 7958,
        "rennes": 7959,
        "jv": 7960,
        "lineau": 7961,
        "mineurs": 7962,
        "reconnaitre": 7963,
        "habituel": 7964,
        "littérature": 7965,
        "exploiter": 7966,
        "just": 7967,
        "chaleur": 7968,
        "bitcoin": 7969,
        "rapproche": 7970,
        "pertes": 7971,
        "devra": 7972,
        "pénal": 7973,
        "fiables": 7974,
        "proxima": 7975,
        "autoroute": 7976,
        "taxi": 7977,
        "conservateur": 7978,
        "touchent": 7979,
        "ele": 7980,
        "modes": 7981,
        "tière": 7982,
        "présu": 7983,
        "justes": 7984,
        "arth": 7985,
        "prô": 7986,
        "ressent": 7987,
        "candida": 7988,
        "candidature": 7989,
        "culaire": 7990,
        "filé": 7991,
        "asselineau": 7992,
        "prêter": 7993,
        "soirées": 7994,
        "ados": 7995,
        "confortable": 7996,
        "plussoie": 7997,
        "ener": 7998,
        "répar": 7999,
        "bancaire": 8000,
        "absent": 8001,
        "présents": 8002,
        "permettra": 8003,
        "indemn": 8004,
        "demo": 8005,
        "terminé": 8006,
        "soral": 8007,
        "licenciement": 8008,
        "chocolatine": 8009,
        "nationalisme": 8010,
        "merdique": 8011,
        "miracle": 8012,
        "formulation": 8013,
        "sentiments": 8014,
        "douteux": 8015,
        "électoral": 8016,
        "francs": 8017,
        "démocrates": 8018,
        "britanniques": 8019,
        "montagne": 8020,
        "achar": 8021,
        "mitterrand": 8022,
        "organisations": 8023,
        "chs": 8024,
        "id": 8025,
        "cabinet": 8026,
        "camarades": 8027,
        "isées": 8028,
        "calmer": 8029,
        "défends": 8030,
        "auxquels": 8031,
        "credi": 8032,
        "approxima": 8033,
        "gardes": 8034,
        "entrepreneur": 8035,
        "marchait": 8036,
        "industriels": 8037,
        "clandestin": 8038,
        "territoires": 8039,
        "poulet": 8040,
        "toilettes": 8041,
        "ménager": 8042,
        "indépendants": 8043,
        "partagent": 8044,
        "oups": 8045,
        "insultant": 8046,
        "export": 8047,
        "refour": 8048,
        "ming": 8049,
        "laissant": 8050,
        "dissu": 8051,
        "différen": 8052,
        "soud": 8053,
        "spiritu": 8054,
        "posture": 8055,
        "spam": 8056,
        "tirent": 8057,
        "négatifs": 8058,
        "viable": 8059,
        "remplis": 8060,
        "empathie": 8061,
        "modéré": 8062,
        "kar": 8063,
        "compense": 8064,
        "optimiste": 8065,
        "trolls": 8066,
        "rentré": 8067,
        "contro": 8068,
        "loyers": 8069,
        "véhicules": 8070,
        "assad": 8071,
        "âtre": 8072,
        "chées": 8073,
        "culturelles": 8074,
        "feux": 8075,
        "vages": 8076,
        "évasion": 8077,
        "alph": 8078,
        "agissent": 8079,
        "précédents": 8080,
        "connaisse": 8081,
        "forêt": 8082,
        "sacrément": 8083,
        "profonde": 8084,
        "organisme": 8085,
        "asile": 8086,
        "arrêtent": 8087,
        "chette": 8088,
        "polonais": 8089,
        "innovation": 8090,
        "formid": 8091,
        "écrits": 8092,
        "sacrifi": 8093,
        "za": 8094,
        "abri": 8095,
        "graphiques": 8096,
        "exagé": 8097,
        "ram": 8098,
        "lrem": 8099,
        "dimin": 8100,
        "arbitre": 8101,
        "nai": 8102,
        "paiement": 8103,
        "ombre": 8104,
        "facil": 8105,
        "tunis": 8106,
        "persécu": 8107,
        "carton": 8108,
        "thèmes": 8109,
        "peaux": 8110,
        "tendances": 8111,
        "auth": 8112,
        "barbe": 8113,
        "patriar": 8114,
        "sjw": 8115,
        "italien": 8116,
        "aisse": 8117,
        "souffrir": 8118,
        "permanent": 8119,
        "luxembourg": 8120,
        "restes": 8121,
        "délinqu": 8122,
        "claque": 8123,
        "miso": 8124,
        "meurt": 8125,
        "diable": 8126,
        "variable": 8127,
        "pourrir": 8128,
        "experience": 8129,
        "ken": 8130,
        "souten": 8131,
        "uela": 8132,
        "réglé": 8133,
        "mates": 8134,
        "atlantique": 8135,
        "analyser": 8136,
        "murs": 8137,
        "thune": 8138,
        "ctes": 8139,
        "oppression": 8140,
        "invo": 8141,
        "cision": 8142,
        "considères": 8143,
        "traduire": 8144,
        "inconnus": 8145,
        "versions": 8146,
        "combats": 8147,
        "gâteau": 8148,
        "laire": 8149,
        "répression": 8150,
        "surveiller": 8151,
        "attendent": 8152,
        "populisme": 8153,
        "vaccins": 8154,
        "publication": 8155,
        "tch": 8156,
        "voulant": 8157,
        "omni": 8158,
        "viols": 8159,
        "ley": 8160,
        "diques": 8161,
        "john": 8162,
        "2ème": 8163,
        "andre": 8164,
        "tâches": 8165,
        "essayent": 8166,
        "technologique": 8167,
        "semi": 8168,
        "plaignent": 8169,
        "enchaî": 8170,
        "aé": 8171,
        "ocra": 8172,
        "fichi": 8173,
        "fichiers": 8174,
        "inscrire": 8175,
        "visé": 8176,
        "retenu": 8177,
        "nostal": 8178,
        "autorisation": 8179,
        "amélioration": 8180,
        "édité": 8181,
        "dérives": 8182,
        "norman": 8183,
        "conseillé": 8184,
        "jaloux": 8185,
        "royal": 8186,
        "param": 8187,
        "excès": 8188,
        "ters": 8189,
        "york": 8190,
        "violer": 8191,
        "ricains": 8192,
        "wait": 8193,
        "ame": 8194,
        "démonstration": 8195,
        "lur": 8196,
        "industrielle": 8197,
        "tamp": 8198,
        "sympathique": 8199,
        "installation": 8200,
        "quiconque": 8201,
        "inspec": 8202,
        "2e": 8203,
        "armées": 8204,
        "plur": 8205,
        "parking": 8206,
        "vichy": 8207,
        "épau": 8208,
        "bullshit": 8209,
        "clic": 8210,
        "interface": 8211,
        "rejeter": 8212,
        "proph": 8213,
        "homophobe": 8214,
        "power": 8215,
        "coali": 8216,
        "nou": 8217,
        "nex": 8218,
        "veuillez": 8219,
        "boucher": 8220,
        "hygi": 8221,
        "sembles": 8222,
        "zer": 8223,
        "néfas": 8224,
        "devenus": 8225,
        "ordon": 8226,
        "viole": 8227,
        "poignée": 8228,
        "médical": 8229,
        "humble": 8230,
        "température": 8231,
        "fameuse": 8232,
        "péné": 8233,
        "minem": 8234,
        "complexité": 8235,
        "saine": 8236,
        "sociét": 8237,
        "contrainte": 8238,
        "partenaires": 8239,
        "qualifiés": 8240,
        "jack": 8241,
        "hâte": 8242,
        "pédophi": 8243,
        "mètre": 8244,
        "croc": 8245,
        "çà": 8246,
        "progressiste": 8247,
        "astu": 8248,
        "haus": 8249,
        "souche": 8250,
        "indu": 8251,
        "interprété": 8252,
        "dominante": 8253,
        "iront": 8254,
        "collective": 8255,
        "dettes": 8256,
        "197": 8257,
        "nécessite": 8258,
        "putes": 8259,
        "paraitre": 8260,
        "mines": 8261,
        "misogy": 8262,
        "sexualité": 8263,
        "administratif": 8264,
        "tete": 8265,
        "estes": 8266,
        "niquer": 8267,
        "troupes": 8268,
        "good": 8269,
        "thou": 8270,
        "séjour": 8271,
        "fec": 8272,
        "stras": 8273,
        "sers": 8274,
        "attra": 8275,
        "plani": 8276,
        "anglophones": 8277,
        "bombes": 8278,
        "lam": 8279,
        "consulter": 8280,
        "arts": 8281,
        "voyait": 8282,
        "établir": 8283,
        "représenta": 8284,
        "illent": 8285,
        "constante": 8286,
        "beauté": 8287,
        "intellectuels": 8288,
        "agences": 8289,
        "sem": 8290,
        "primes": 8291,
        "manager": 8292,
        "visme": 8293,
        "précar": 8294,
        "pensez": 8295,
        "provoque": 8296,
        "yau": 8297,
        "docteur": 8298,
        "constructif": 8299,
        "énergies": 8300,
        "outr": 8301,
        "jeudi": 8302,
        "ssii": 8303,
        "bernard": 8304,
        "frappe": 8305,
        "favorise": 8306,
        "amateur": 8307,
        "29": 8308,
        "obscur": 8309,
        "pod": 8310,
        "raire": 8311,
        "asiatiques": 8312,
        "étudié": 8313,
        "qualités": 8314,
        "arran": 8315,
        "délinquance": 8316,
        "réjou": 8317,
        "matie": 8318,
        "ild": 8319,
        "élevée": 8320,
        "informatici": 8321,
        "réper": 8322,
        "mathématiques": 8323,
        "retrouves": 8324,
        "criptions": 8325,
        "plains": 8326,
        "agers": 8327,
        "grace": 8328,
        "genou": 8329,
        "répété": 8330,
        "pg": 8331,
        "primant": 8332,
        "merveille": 8333,
        "dégager": 8334,
        "sports": 8335,
        "désac": 8336,
        "taires": 8337,
        "biologique": 8338,
        "échantillon": 8339,
        "trent": 8340,
        "téléphon": 8341,
        "aaa": 8342,
        "diplomatique": 8343,
        "radar": 8344,
        "laver": 8345,
        "relance": 8346,
        "ané": 8347,
        "mmation": 8348,
        "indépendante": 8349,
        "male": 8350,
        "commerciaux": 8351,
        "rienne": 8352,
        "instruc": 8353,
        "plantes": 8354,
        "informé": 8355,
        "conces": 8356,
        "exige": 8357,
        "corrige": 8358,
        "plis": 8359,
        "bs": 8360,
        "perdent": 8361,
        "deal": 8362,
        "adh": 8363,
        "belges": 8364,
        "apporté": 8365,
        "illon": 8366,
        "théorique": 8367,
        "risquent": 8368,
        "légalité": 8369,
        "alain": 8370,
        "explosion": 8371,
        "accusation": 8372,
        "ajouté": 8373,
        "octo": 8374,
        "diagnos": 8375,
        "atmos": 8376,
        "cumu": 8377,
        "diminue": 8378,
        "gouverner": 8379,
        "ethnique": 8380,
        "mante": 8381,
        "pdf": 8382,
        "écrite": 8383,
        "paille": 8384,
        "central": 8385,
        "horri": 8386,
        "sombre": 8387,
        "liban": 8388,
        "rables": 8389,
        "dispose": 8390,
        "suédois": 8391,
        "start": 8392,
        "renvoie": 8393,
        "etais": 8394,
        "signaler": 8395,
        "pères": 8396,
        "loisir": 8397,
        "électeur": 8398,
        "frein": 8399,
        "democra": 8400,
        "dépression": 8401,
        "grille": 8402,
        "concurrent": 8403,
        "réflexe": 8404,
        "appartenance": 8405,
        "déterminer": 8406,
        "légis": 8407,
        "législation": 8408,
        "magis": 8409,
        "cliquer": 8410,
        "visibilité": 8411,
        "laur": 8412,
        "occidentale": 8413,
        "naient": 8414,
        "forment": 8415,
        "fusil": 8416,
        "authenti": 8417,
        "volon": 8418,
        "fuir": 8419,
        "m2": 8420,
        "récents": 8421,
        "définit": 8422,
        "évolué": 8423,
        "infir": 8424,
        "modernes": 8425,
        "apparaît": 8426,
        "régulation": 8427,
        "vingt": 8428,
        "boyco": 8429,
        "pourrai": 8430,
        "fantasme": 8431,
        "désir": 8432,
        "imbé": 8433,
        "discipline": 8434,
        "humor": 8435,
        "câble": 8436,
        "bêtes": 8437,
        "psychologie": 8438,
        "sanders": 8439,
        "godwin": 8440,
        "passif": 8441,
        "fascin": 8442,
        "souhaitent": 8443,
        "come": 8444,
        "individuelle": 8445,
        "toit": 8446,
        "trahis": 8447,
        "vagues": 8448,
        "tourisme": 8449,
        "tises": 8450,
        "discuté": 8451,
        "évolue": 8452,
        "préfec": 8453,
        "diffuser": 8454,
        "rattraper": 8455,
        "biblioth": 8456,
        "intégralité": 8457,
        "mali": 8458,
        "occurence": 8459,
        "célib": 8460,
        "influencer": 8461,
        "congé": 8462,
        "tarif": 8463,
        "débarrasser": 8464,
        "cks": 8465,
        "protège": 8466,
        "établi": 8467,
        "flu": 8468,
        "esclaves": 8469,
[...]
